<unk>	0
<s>	0
</s>	0
<pad>	0
 <mask>	0
▁t	-0
he	-1
▁a	-2
in	-3
▁the	-4
er	-5
on	-6
re	-7
▁s	-8
▁w	-9
▁o	-10
at	-11
en	-12
an	-13
ed	-14
is	-15
▁c	-16
or	-17
it	-18
es	-19
▁f	-20
▁b	-21
ar	-22
nd	-23
ing	-24
▁p	-25
al	-26
▁in	-27
▁of	-28
▁to	-29
ou	-30
as	-31
▁m	-32
▁and	-33
▁h	-34
ic	-35
▁d	-36
ion	-37
le	-38
om	-39
▁T	-40
▁th	-41
ent	-42
il	-43
▁re	-44
st	-45
▁S	-46
▁l	-47
▁A	-48
ro	-49
▁n	-50
el	-51
id	-52
▁I	-53
▁e	-54
▁C	-55
▁be	-56
ac	-57
▁g	-58
am	-59
▁on	-60
ve	-61
ol	-62
▁M	-63
ot	-64
ut	-65
ad	-66
ly	-67
▁is	-68
ur	-69
▁for	-70
ay	-71
et	-72
im	-73
ver	-74
▁The	-75
us	-76
ig	-77
ct	-78
ow	-79
▁B	-80
ir	-81
▁he	-82
▁1	-83
▁was	-84
ter	-85
▁that	-86
ation	-87
▁st	-88
▁P	-89
ith	-90
▁"	-91
▁H	-92
▁as	-93
ce	-94
▁with	-95
ch	-96
▁wh	-97
un	-98
▁it	-99
▁R	-100
▁2	-101
▁al	-102
ul	-103
▁W	-104
▁D	-105
▁an	-106
os	-107
em	-108
▁F	-109
ri	-110
▁at	-111
ers	-112
ra	-113
ill	-114
and	-115
▁y	-116
▁con	-117
her	-118
▁L	-119
ld	-120
est	-121
th	-122
▁N	-123
▁G	-124
▁(	-125
rom	-126
▁E	-127
ag	-128
op	-129
ist	-130
▁by	-131
▁de	-132
um	-133
if	-134
▁com	-135
▁pro	-136
res	-137
▁se	-138
ak	-139
▁are	-140
pp	-141
ain	-142
ort	-143
▁J	-144
▁ha	-145
ore	-146
▁r	-147
▁20	-148
ate	-149
▁v	-150
od	-151
▁from	-152
igh	-153
ear	-154
art	-155
ity	-156
oc	-157
▁O	-158
ew	-159
ab	-160
ess	-161
ies	-162
ant	-163
iv	-164
▁U	-165
▁ex	-166
our	-167
▁su	-168
ment	-169
se	-170
▁his	-171
▁19	-172
pe	-173
▁or	-174
qu	-175
▁ch	-176
▁In	-177
▁sh	-178
▁have	-179
end	-180
all	-181
ive	-182
▁sa	-183
▁has	-184
ust	-185
▁le	-186
▁not	-187
▁we	-188
ard	-189
ud	-190
▁pl	-191
▁K	-192
ia	-193
ast	-194
ight	-195
▁k	-196
ian	-197
oun	-198
ial	-199
ould	-200
ich	-201
gh	-202
ber	-203
▁u	-204
rou	-205
ost	-206
ack	-207
▁this	-208
ere	-209
ge	-210
ell	-211
out	-212
▁said	-213
ine	-214
▁wor	-215
ong	-216
ure	-217
▁ab	-218
pt	-219
ated	-220
ome	-221
▁go	-222
00	-223
ok	-224
ary	-225
▁j	-226
▁were	-227
▁whe	-228
▁-	-229
ions	-230
ame	-231
ff	-232
▁which	-233
are	-234
ip	-235
▁St	-236
ry	-237
so	-238
ally	-239
▁their	-240
▁but	-241
ther	-242
▁had	-243
▁It	-244
▁who	-245
ie	-246
ire	-247
▁they	-248
ous	-249
▁un	-250
per	-251
▁Ch	-252
ub	-253
▁Th	-254
cc	-255
ice	-256
▁her	-257
▁He	-258
▁you	-259
ect	-260
▁ad	-261
ide	-262
▁us	-263
▁comp	-264
ue	-265
og	-266
▁res	-267
▁ne	-268
ik	-269
▁also	-270
▁will	-271
▁can	-272
▁all	-273
▁cl	-274
ans	-275
fter	-276
ime	-277
▁been	-278
ap	-279
ord	-280
▁inc	-281
▁year	-282
ish	-283
▁out	-284
▁int	-285
▁ag	-286
mer	-287
ep	-288
▁cont	-289
▁V	-290
."	-291
act	-292
▁en	-293
▁one	-294
,"	-295
ount	-296
age	-297
ond	-298
▁off	-299
ov	-300
ign	-301
▁up	-302
av	-303
ru	-304
▁do	-305
irst	-306
▁me	-307
port	-308
pl	-309
one	-310
▁im	-311
▁she	-312
ence	-313
▁part	-314
▁its	-315
ace	-316
▁201	-317
iz	-318
ult	-319
▁more	-320
ical	-321
ass	-322
own	-323
ations	-324
▁tr	-325
▁ar	-326
▁man	-327
ely	-328
▁over	-329
▁tw	-330
▁first	-331
ib	-332
▁pe	-333
▁after	-334
very	-335
▁per	-336
ance	-337
ake	-338
▁te	-339
▁bec	-340
du	-341
▁about	-342
ile	-343
ree	-344
▁so	-345
rit	-346
ind	-347
orm	-348
▁sp	-349
ress	-350
▁app	-351
ren	-352
ark	-353
▁rec	-354
▁would	-355
ays	-356
▁work	-357
▁dis	-358
ound	-359
ric	-360
ople	-361
ose	-362
▁Y	-363
▁other	-364
ach	-365
ang	-366
ction	-367
able	-368
ens	-369
hed	-370
ater	-371
ition	-372
▁3	-373
old	-374
▁ev	-375
▁sc	-376
▁new	-377
▁Un	-378
▁there	-379
ade	-380
▁ser	-381
ook	-382
▁pre	-383
▁time	-384
▁two	-385
oin	-386
▁when	-387
ite	-388
ild	-389
ory	-390
▁ro	-391
ates	-392
▁200	-393
ident	-394
▁people	-395
lic	-396
▁kn	-397
ts	-398
oll	-399
wn	-400
ough	-401
▁into	-402
ike	-403
vers	-404
aus	-405
▁than	-406
ors	-407
▁qu	-408
▁Al	-409
ational	-410
ase	-411
▁play	-412
te	-413
land	-414
nder	-415
vel	-416
ob	-417
ail	-418
ings	-419
anc	-420
▁them	-421
ne	-422
uss	-423
▁inter	-424
ks	-425
lud	-426
iss	-427
fer	-428
▁comm	-429
urn	-430
amp	-431
▁acc	-432
ove	-433
man	-434
uring	-435
reat	-436
oy	-437
▁him	-438
we	-439
▁some	-440
▁pol	-441
ents	-442
ood	-443
ied	-444
ons	-445
▁att	-446
form	-447
aw	-448
ious	-449
ec	-450
rough	-451
ced	-452
▁pr	-453
▁includ	-454
▁years	-455
ted	-456
▁An	-457
ick	-458
red	-459
▁dec	-460
▁again	-461
▁sec	-462
▁As	-463
day	-464
▁act	-465
ited	-466
▁co	-467
▁des	-468
▁just	-469
▁under	-470
▁spe	-471
).	-472
▁am	-473
▁bet	-474
ved	-475
▁inv	-476
▁what	-477
▁4	-478
▁my	-479
▁count	-480
▁This	-481
les	-482
ath	-483
vern	-484
ft	-485
ause	-486
round	-487
▁like	-488
ased	-489
als	-490
▁only	-491
fore	-492
▁reg	-493
ink	-494
lect	-495
▁fe	-496
orn	-497
),	-498
▁cons	-499
ph	-500
▁any	-501
▁no	-502
▁most	-503
ward	-504
▁Ar	-505
ince	-506
▁18	-507
▁And	-508
▁could	-509
▁5	-510
▁add	-511
▁fin	-512
ublic	-513
▁get	-514
▁rem	-515
▁supp	-516
▁back	-517
▁Com	-518
enc	-519
▁our	-520
uc	-521
▁fl	-522
".	-523
▁where	-524
▁ind	-525
▁Mar	-526
▁'	-527
ily	-528
ock	-529
ting	-530
ool	-531
▁if	-532
ities	-533
▁New	-534
up	-535
ict	-536
uro	-537
gan	-538
rain	-539
hip	-540
▁bu	-541
oth	-542
ll	-543
▁mon	-544
▁rel	-545
▁how	-546
▁now	-547
▁Russ	-548
tern	-549
▁She	-550
ating	-551
ram	-552
ek	-553
ise	-554
▁bl	-555
ug	-556
other	-557
▁through	-558
▁We	-559
▁But	-560
ife	-561
hen	-562
arg	-563
▁De	-564
▁cent	-565
▁Se	-566
pect	-567
▁being	-568
und	-569
▁Le	-570
▁last	-571
▁then	-572
oss	-573
ix	-574
▁did	-575
rib	-576
▁ear	-577
▁made	-578
▁ac	-579
▁202	-580
▁end	-581
ron	-582
uch	-583
▁Wh	-584
▁call	-585
▁show	-586
ier	-587
▁em	-588
▁pres	-589
▁fam	-590
vernment	-591
▁three	-592
ning	-593
ween	-594
▁ass	-595
▁ret	-596
meric	-597
row	-598
▁during	-599
▁need	-600
▁many	-601
▁before	-602
▁imp	-603
ener	-604
ular	-605
▁lead	-606
ower	-607
ty	-608
▁En	-609
ank	-610
▁produ	-611
▁199	-612
ember	-613
ual	-614
▁On	-615
elf	-616
ful	-617
▁Euro	-618
▁well	-619
aking	-620
▁def	-621
▁sy	-622
olog	-623
▁because	-624
ters	-625
▁your	-626
tle	-627
▁6	-628
ific	-629
▁Re	-630
any	-631
ash	-632
▁min	-633
ason	-634
▁between	-635
io	-636
▁Americ	-637
▁against	-638
▁such	-639
hes	-640
ollow	-641
ues	-642
▁dif	-643
▁want	-644
ven	-645
ject	-646
air	-647
oh	-648
▁found	-649
ics	-650
roup	-651
000	-652
▁ra	-653
ouse	-654
▁set	-655
ms	-656
▁these	-657
chool	-658
▁long	-659
ah	-660
au	-661
The	-662
..	-663
ative	-664
der	-665
▁team	-666
▁while	-667
az	-668
ros	-669
▁right	-670
▁report	-671
▁very	-672
ures	-673
▁sub	-674
▁sur	-675
xt	-676
con	-677
▁br	-678
▁Europe	-679
19	-680
▁Sh	-681
iew	-682
way	-683
▁ph	-684
illion	-685
▁start	-686
▁every	-687
oot	-688
son	-689
ral	-690
▁stud	-691
▁num	-692
▁may	-693
ather	-694
▁car	-695
ving	-696
▁own	-697
ton	-698
▁Fr	-699
ork	-700
led	-701
ever	-702
▁trans	-703
ision	-704
aj	-705
▁col	-706
▁fil	-707
ivers	-708
ement	-709
ten	-710
▁world	-711
▁war	-712
▁know	-713
▁ent	-714
erson	-715
cial	-716
ey	-717
▁loc	-718
▁They	-719
▁Ind	-720
▁offic	-721
▁even	-722
ible	-723
ris	-724
▁make	-725
▁used	-726
ines	-727
ared	-728
its	-729
▁Z	-730
ished	-731
▁Sc	-732
▁hel	-733
cer	-734
▁Tr	-735
▁follow	-736
▁down	-737
▁high	-738
,000	-739
mber	-740
ange	-741
▁med	-742
med	-743
▁second	-744
▁government	-745
▁ter	-746
eth	-747
irect	-748
▁op	-749
▁should	-750
▁prov	-751
▁7	-752
imes	-753
▁sign	-754
▁sm	-755
ution	-756
velop	-757
outh	-758
emb	-759
▁look	-760
▁four	-761
ina	-762
▁help	-763
▁those	-764
▁bel	-765
iel	-766
ives	-767
ility	-768
▁Comm	-769
▁inf	-770
▁Uk	-771
▁win	-772
▁10	-773
ments	-774
▁contin	-775
ists	-776
iet	-777
▁child	-778
▁think	-779
▁For	-780
ister	-781
ered	-782
▁support	-783
ann	-784
ually	-785
ces	-786
ames	-787
▁Mr	-788
▁poin	-789
▁eff	-790
cess	-791
ale	-792
ury	-793
▁since	-794
▁–	-795
▁gr	-796
▁At	-797
▁month	-798
stem	-799
▁say	-800
▁including	-801
▁rep	-802
▁way	-803
▁see	-804
alth	-805
▁rele	-806
ax	-807
ital	-808
▁inst	-809
ross	-810
▁around	-811
▁group	-812
ave	-813
ets	-814
▁day	-815
▁exp	-816
▁still	-817
▁United	-818
▁much	-819
tain	-820
min	-821
ble	-822
▁There	-823
▁wom	-824
▁ext	-825
▁same	-826
ism	-827
▁later	-828
▁country	-829
▁$	-830
ull	-831
▁8	-832
ys	-833
▁mat	-834
alk	-835
▁take	-836
▁going	-837
ording	-838
▁both	-839
▁Is	-840
▁ob	-841
ves	-842
▁Pro	-843
▁Sp	-844
▁gu	-845
▁public	-846
▁state	-847
▁home	-848
▁don	-849
iam	-850
▁198	-851
ner	-852
▁develop	-853
▁mark	-854
▁Con	-855
gy	-856
▁ins	-857
▁Q	-858
▁Wor	-859
▁differ	-860
▁cur	-861
▁conf	-862
ck	-863
▁aut	-864
▁tra	-865
▁pop	-866
▁family	-867
▁disc	-868
els	-869
▁use	-870
▁week	-871
arl	-872
▁run	-873
▁law	-874
orth	-875
▁cre	-876
▁Eng	-877
▁cour	-878
read	-879
▁life	-880
ries	-881
▁ann	-882
ission	-883
▁bro	-884
▁school	-885
▁good	-886
▁How	-887
▁dist	-888
▁9	-889
▁number	-890
▁mod	-891
ired	-892
ands	-893
▁str	-894
▁polit	-895
til	-896
cept	-897
ged	-898
ised	-899
▁leg	-900
▁dep	-901
▁direct	-902
▁told	-903
▁system	-904
▁soc	-905
conom	-906
ants	-907
ived	-908
ene	-909
1,	-910
ird	-911
▁sl	-912
ages	-913
▁Brit	-914
▁bo	-915
▁Joh	-916
▁prot	-917
ars	-918
ient	-919
▁Bl	-920
▁gener	-921
ump	-922
▁open	-923
▁mus	-924
▁Ger	-925
▁US	-926
pr	-927
get	-928
▁Pres	-929
osed	-930
▁World	-931
▁serv	-932
iver	-933
▁though	-934
▁est	-935
▁elect	-936
▁Pr	-937
▁game	-938
iversity	-939
▁head	-940
ret	-941
▁som	-942
▁art	-943
▁invest	-944
▁ed	-945
▁main	-946
ness	-947
▁care	-948
ober	-949
▁place	-950
▁remain	-951
▁197	-952
▁exper	-953
▁known	-954
▁sing	-955
ger	-956
▁15	-957
▁dem	-958
com	-959
rent	-960
▁person	-961
▁Jan	-962
▁season	-963
ody	-964
▁incre	-965
▁resp	-966
▁form	-967
▁bus	-968
rat	-969
▁does	-970
▁sever	-971
▁called	-972
ute	-973
ke	-974
vent	-975
ins	-976
ature	-977
▁sim	-978
gg	-979
ield	-980
une	-981
▁char	-982
▁prog	-983
▁John	-984
iness	-985
▁cr	-986
▁mil	-987
ices	-988
ried	-989
▁Rep	-990
▁Cl	-991
▁May	-992
▁partic	-993
▁import	-994
ajor	-995
▁rest	-996
ional	-997
ized	-998
ex	-999
lear	-1000
2,	-1001
▁result	-1002
▁det	-1003
▁iss	-1004
▁mov	-1005
▁became	-1006
erv	-1007
▁oper	-1008
▁air	-1009
▁pass	-1010
eb	-1011
▁until	-1012
ural	-1013
▁left	-1014
▁pri	-1015
▁lit	-1016
▁commun	-1017
▁comple	-1018
▁return	-1019
▁After	-1020
▁American	-1021
▁near	-1022
to	-1023
▁Min	-1024
aim	-1025
▁film	-1026
inal	-1027
▁build	-1028
▁writ	-1029
▁gl	-1030
▁Russian	-1031
▁econom	-1032
▁former	-1033
▁another	-1034
▁says	-1035
▁Ad	-1036
▁million	-1037
▁city	-1038
ling	-1039
rem	-1040
▁hist	-1041
raine	-1042
ience	-1043
▁ref	-1044
urs	-1045
▁real	-1046
▁next	-1047
20	-1048
▁President	-1049
▁17	-1050
▁record	-1051
▁power	-1052
over	-1053
iving	-1054
▁States	-1055
ued	-1056
akes	-1057
the	-1058
▁la	-1059
1.	-1060
▁happ	-1061
riend	-1062
▁pos	-1063
▁opp	-1064
▁ke	-1065
▁ele	-1066
ically	-1067
▁rece	-1068
▁vot	-1069
▁stat	-1070
▁requ	-1071
▁official	-1072
▁really	-1073
ency	-1074
▁Ukraine	-1075
▁won	-1076
▁Ph	-1077
ball	-1078
rist	-1079
▁European	-1080
▁far	-1081
▁Be	-1082
ided	-1083
ley	-1084
2.	-1085
▁cap	-1086
▁German	-1087
▁best	-1088
▁each	-1089
augh	-1090
ately	-1091
▁different	-1092
▁del	-1093
▁So	-1094
▁company	-1095
▁appro	-1096
▁put	-1097
▁took	-1098
ccess	-1099
ple	-1100
▁belie	-1101
▁Russia	-1102
▁196	-1103
▁adv	-1104
▁prom	-1105
self	-1106
embers	-1107
▁major	-1108
enn	-1109
▁name	-1110
▁Aust	-1111
ians	-1112
lished	-1113
hor	-1114
▁fact	-1115
▁16	-1116
0.	-1117
apt	-1118
▁early	-1119
▁That	-1120
▁Am	-1121
chn	-1122
▁perform	-1123
▁Pol	-1124
view	-1125
▁hum	-1126
▁organ	-1127
▁met	-1128
ai	-1129
▁vis	-1130
▁const	-1131
cent	-1132
▁av	-1133
▁allow	-1134
eng	-1135
▁post	-1136
ruct	-1137
line	-1138
ently	-1139
▁poss	-1140
▁children	-1141
uary	-1142
▁find	-1143
year	-1144
▁top	-1145
alf	-1146
▁series	-1147
ium	-1148
▁mar	-1149
▁spec	-1150
ract	-1151
▁var	-1152
▁expl	-1153
ration	-1154
▁small	-1155
▁great	-1156
▁big	-1157
ague	-1158
lish	-1159
▁Col	-1160
cl	-1161
▁got	-1162
▁intern	-1163
4,	-1164
ases	-1165
ology	-1166
▁few	-1167
▁You	-1168
▁several	-1169
▁five	-1170
▁Ju	-1171
▁death	-1172
▁turn	-1173
▁prof	-1174
▁sit	-1175
▁War	-1176
ane	-1177
urch	-1178
▁contro	-1179
my	-1180
side	-1181
vious	-1182
▁design	-1183
aren	-1184
ense	-1185
3,	-1186
▁Or	-1187
▁too	-1188
ott	-1189
0,	-1190
▁women	-1191
▁come	-1192
▁area	-1193
▁days	-1194
▁University	-1195
▁All	-1196
▁attack	-1197
amed	-1198
ior	-1199
▁Af	-1200
▁che	-1201
▁fac	-1202
▁never	-1203
▁here	-1204
▁el	-1205
▁His	-1206
▁must	-1207
▁ask	-1208
raph	-1209
▁occ	-1210
▁added	-1211
▁claim	-1212
▁However	-1213
app	-1214
▁join	-1215
ended	-1216
iven	-1217
5,	-1218
▁consid	-1219
▁order	-1220
▁health	-1221
▁Pl	-1222
▁members	-1223
ways	-1224
▁Go	-1225
▁six	-1226
ney	-1227
▁current	-1228
▁£	-1229
▁beh	-1230
▁cor	-1231
▁January	-1232
▁194	-1233
▁orig	-1234
ulation	-1235
by	-1236
ern	-1237
▁grow	-1238
▁business	-1239
▁camp	-1240
▁March	-1241
▁12	-1242
ering	-1243
▁South	-1244
▁kill	-1245
▁book	-1246
▁success	-1247
▁National	-1248
sh	-1249
▁move	-1250
▁important	-1251
▁Br	-1252
▁old	-1253
▁Tom	-1254
We	-1255
▁came	-1256
ele	-1257
▁If	-1258
▁When	-1259
▁following	-1260
▁hand	-1261
rict	-1262
ured	-1263
ster	-1264
▁es	-1265
▁along	-1266
▁level	-1267
wards	-1268
▁without	-1269
oung	-1270
▁bre	-1271
▁cost	-1272
▁short	-1273
ploy	-1274
itary	-1275
ides	-1276
▁Oct	-1277
▁released	-1278
▁Sept	-1279
ony	-1280
8,	-1281
▁fore	-1282
▁Mus	-1283
▁cer	-1284
ential	-1285
▁sk	-1286
▁foot	-1287
▁national	-1288
▁aff	-1289
arge	-1290
lin	-1291
itions	-1292
▁announ	-1293
atch	-1294
▁June	-1295
br	-1296
▁expect	-1297
bum	-1298
6,	-1299
▁deb	-1300
▁program	-1301
▁Aug	-1302
reen	-1303
7,	-1304
▁dri	-1305
▁social	-1306
▁appear	-1307
ned	-1308
ope	-1309
3.	-1310
▁test	-1311
▁manag	-1312
▁stand	-1313
ified	-1314
ively	-1315
▁water	-1316
▁feel	-1317
▁York	-1318
ata	-1319
▁ris	-1320
aken	-1321
▁pay	-1322
▁began	-1323
▁sol	-1324
oney	-1325
▁lot	-1326
hern	-1327
▁read	-1328
4.	-1329
pril	-1330
9,	-1331
▁July	-1332
bs	-1333
▁One	-1334
▁try	-1335
▁plan	-1336
▁event	-1337
▁played	-1338
be	-1339
▁Car	-1340
▁compet	-1341
oci	-1342
▁infl	-1343
ief	-1344
▁friend	-1345
ergy	-1346
osp	-1347
▁September	-1348
▁often	-1349
...	-1350
ounc	-1351
▁local	-1352
thing	-1353
iod	-1354
▁effect	-1355
less	-1356
▁195	-1357
▁train	-1358
▁months	-1359
▁due	-1360
ovember	-1361
rop	-1362
ences	-1363
▁process	-1364
▁Christ	-1365
▁October	-1366
▁political	-1367
formation	-1368
▁interest	-1369
▁British	-1370
▁Me	-1371
▁Ge	-1372
▁Republic	-1373
▁music	-1374
▁UK	-1375
▁April	-1376
▁August	-1377
ung	-1378
▁Mc	-1379
▁countries	-1380
▁pat	-1381
▁across	-1382
▁went	-1383
inc	-1384
▁mid	-1385
▁less	-1386
cember	-1387
ize	-1388
▁house	-1389
▁concer	-1390
▁Her	-1391
▁ty	-1392
ats	-1393
▁Ex	-1394
resent	-1395
ards	-1396
▁market	-1397
▁third	-1398
▁away	-1399
▁meet	-1400
▁polic	-1401
▁Cent	-1402
▁Tw	-1403
▁larg	-1404
▁eng	-1405
ending	-1406
5.	-1407
▁desc	-1408
ored	-1409
yle	-1410
▁equ	-1411
It	-1412
▁case	-1413
▁song	-1414
▁become	-1415
▁held	-1416
▁tri	-1417
▁final	-1418
eder	-1419
▁class	-1420
ances	-1421
▁November	-1422
ething	-1423
▁pub	-1424
▁Har	-1425
▁according	-1426
aff	-1427
▁within	-1428
▁point	-1429
▁album	-1430
▁chang	-1431
urther	-1432
gin	-1433
▁Feb	-1434
ales	-1435
▁seen	-1436
▁Can	-1437
▁Ab	-1438
ready	-1439
ality	-1440
ched	-1441
▁11	-1442
▁December	-1443
ours	-1444
▁having	-1445
▁proble	-1446
▁Gr	-1447
▁among	-1448
▁night	-1449
▁(1	-1450
por	-1451
▁(19	-1452
oor	-1453
▁police	-1454
▁list	-1455
▁president	-1456
acy	-1457
ee	-1458
rench	-1459
▁things	-1460
ator	-1461
▁side	-1462
▁Gu	-1463
▁ve	-1464
ilt	-1465
▁Austral	-1466
▁author	-1467
▁men	-1468
co	-1469
▁prop	-1470
ruary	-1471
▁val	-1472
▁line	-1473
mp	-1474
rew	-1475
▁crit	-1476
ably	-1477
▁keep	-1478
▁able	-1479
▁club	-1480
ouncil	-1481
ky	-1482
▁quest	-1483
▁techn	-1484
mit	-1485
ald	-1486
used	-1487
▁large	-1488
urity	-1489
aced	-1490
▁West	-1491
▁Sw	-1492
▁times	-1493
ondon	-1494
▁already	-1495
▁party	-1496
▁something	-1497
ront	-1498
iety	-1499
▁Sec	-1500
▁lik	-1501
▁hard	-1502
▁cond	-1503
ipp	-1504
▁bat	-1505
ocrat	-1506
▁House	-1507
▁little	-1508
ham	-1509
▁working	-1510
ention	-1511
▁let	-1512
ox	-1513
▁sent	-1514
8.	-1515
▁February	-1516
▁given	-1517
let	-1518
▁El	-1519
▁vide	-1520
▁dra	-1521
▁Inst	-1522
▁news	-1523
▁change	-1524
▁King	-1525
▁Will	-1526
▁view	-1527
ush	-1528
▁--	-1529
empt	-1530
▁No	-1531
-1	-1532
▁past	-1533
▁always	-1534
▁period	-1535
▁eas	-1536
▁human	-1537
▁London	-1538
ained	-1539
7.	-1540
▁protect	-1541
par	-1542
▁sw	-1543
9.	-1544
▁reported	-1545
▁City	-1546
6.	-1547
though	-1548
ring	-1549
▁military	-1550
▁China	-1551
aster	-1552
▁clear	-1553
▁making	-1554
▁Fl	-1555
earch	-1556
▁tit	-1557
artment	-1558
▁North	-1559
▁single	-1560
eg	-1561
▁Ass	-1562
▁With	-1563
▁fund	-1564
▁bas	-1565
iol	-1566
hel	-1567
▁sum	-1568
▁Man	-1569
▁press	-1570
iqu	-1571
▁present	-1572
▁trad	-1573
▁invol	-1574
▁Bar	-1575
▁Dem	-1576
▁half	-1577
▁didn	-1578
▁full	-1579
ograph	-1580
▁started	-1581
▁14	-1582
▁Afric	-1583
yl	-1584
▁French	-1585
rote	-1586
ened	-1587
▁fun	-1588
apan	-1589
▁land	-1590
tal	-1591
▁might	-1592
▁better	-1593
▁charac	-1594
▁hig	-1595
▁project	-1596
ones	-1597
▁ri	-1598
▁died	-1599
▁ide	-1600
ampions	-1601
▁young	-1602
ying	-1603
here	-1604
▁commit	-1605
yn	-1606
▁Co	-1607
▁193	-1608
▁today	-1609
▁Trump	-1610
▁previous	-1611
",	-1612
ization	-1613
ories	-1614
gether	-1615
▁together	-1616
fic	-1617
play	-1618
ots	-1619
▁X	-1620
▁State	-1621
▁Ed	-1622
▁England	-1623
▁particular	-1624
▁indust	-1625
most	-1626
▁energy	-1627
▁par	-1628
▁13	-1629
▁hold	-1630
omin	-1631
▁role	-1632
▁town	-1633
leg	-1634
ead	-1635
ran	-1636
▁deal	-1637
arm	-1638
▁history	-1639
irl	-1640
▁Su	-1641
rie	-1642
urg	-1643
▁Part	-1644
aly	-1645
rodu	-1646
ison	-1647
▁wrote	-1648
▁taken	-1649
▁vict	-1650
af	-1651
▁estab	-1652
emic	-1653
ream	-1654
elt	-1655
ains	-1656
▁based	-1657
rest	-1658
idence	-1659
oe	-1660
rown	-1661
uture	-1662
▁further	-1663
▁media	-1664
iting	-1665
▁Japan	-1666
▁&	-1667
ze	-1668
▁Mon	-1669
▁activ	-1670
▁Cal	-1671
▁port	-1672
▁Intern	-1673
stand	-1674
ilar	-1675
iron	-1676
▁miss	-1677
ctor	-1678
imate	-1679
▁ant	-1680
▁late	-1681
▁least	-1682
utes	-1683
▁refer	-1684
▁job	-1685
▁received	-1686
▁II	-1687
ption	-1688
ffic	-1689
▁money	-1690
ode	-1691
angu	-1692
▁repl	-1693
▁using	-1694
iday	-1695
ese	-1696
elling	-1697
▁stop	-1698
▁fight	-1699
pecial	-1700
▁star	-1701
▁Cup	-1702
▁free	-1703
▁seem	-1704
▁special	-1705
▁fail	-1706
▁international	-1707
▁member	-1708
▁addition	-1709
▁product	-1710
▁led	-1711
▁mom	-1712
▁control	-1713
▁rul	-1714
▁To	-1715
itive	-1716
▁cult	-1717
for	-1718
iden	-1719
▁appe	-1720
irc	-1721
me	-1722
▁Count	-1723
▁represent	-1724
▁food	-1725
epend	-1726
nes	-1727
▁court	-1728
ample	-1729
▁son	-1730
▁vers	-1731
▁fre	-1732
▁service	-1733
▁30	-1734
▁hit	-1735
▁mean	-1736
ument	-1737
▁century	-1738
▁strong	-1739
▁Union	-1740
nect	-1741
sc	-1742
▁Te	-1743
▁These	-1744
ortun	-1745
▁describ	-1746
▁building	-1747
▁profess	-1748
▁announced	-1749
obal	-1750
reet	-1751
▁div	-1752
aign	-1753
▁live	-1754
▁Res	-1755
▁father	-1756
▁Par	-1757
oman	-1758
of	-1759
▁relations	-1760
▁cover	-1761
val	-1762
▁points	-1763
▁agre	-1764
ery	-1765
▁saf	-1766
▁pain	-1767
▁Geor	-1768
ches	-1769
▁future	-1770
ivil	-1771
▁video	-1772
▁cou	-1773
▁light	-1774
▁investig	-1775
▁age	-1776
▁employ	-1777
▁give	-1778
aut	-1779
▁love	-1780
▁redu	-1781
▁Dav	-1782
Th	-1783
▁By	-1784
▁others	-1785
▁non	-1786
arliam	-1787
▁once	-1788
▁information	-1789
redit	-1790
pite	-1791
▁India	-1792
aces	-1793
▁stri	-1794
▁priv	-1795
▁word	-1796
sel	-1797
▁community	-1798
▁Commission	-1799
▁pot	-1800
▁sold	-1801
uation	-1802
tee	-1803
▁named	-1804
▁League	-1805
▁mother	-1806
▁Minister	-1807
▁During	-1808
▁lost	-1809
▁Acc	-1810
iber	-1811
head	-1812
▁avail	-1813
▁talk	-1814
▁foc	-1815
▁ever	-1816
▁init	-1817
▁story	-1818
arliament	-1819
atic	-1820
▁Dep	-1821
▁games	-1822
▁Sy	-1823
▁host	-1824
▁fall	-1825
ades	-1826
▁election	-1827
▁common	-1828
▁lim	-1829
▁possible	-1830
▁viol	-1831
▁caus	-1832
ops	-1833
▁ident	-1834
▁built	-1835
▁colle	-1836
▁access	-1837
▁include	-1838
▁leaders	-1839
50	-1840
▁Gl	-1841
▁account	-1842
▁capt	-1843
ival	-1844
▁fire	-1845
uk	-1846
▁body	-1847
▁low	-1848
ination	-1849
uck	-1850
▁development	-1851
▁Democrat	-1852
ament	-1853
▁players	-1854
▁ep	-1855
estern	-1856
▁kind	-1857
▁financ	-1858
▁whether	-1859
cast	-1860
uted	-1861
▁thought	-1862
▁tem	-1863
ler	-1864
▁inj	-1865
ither	-1866
▁laun	-1867
go	-1868
▁comes	-1869
▁published	-1870
▁While	-1871
▁campaign	-1872
▁tax	-1873
ising	-1874
▁Pe	-1875
▁career	-1876
ggest	-1877
▁suggest	-1878
ev	-1879
▁lear	-1880
ourn	-1881
ability	-1882
▁example	-1883
▁cut	-1884
▁Med	-1885
▁why	-1886
BC	-1887
▁attempt	-1888
uel	-1889
▁lo	-1890
arch	-1891
▁region	-1892
ivid	-1893
▁done	-1894
ape	-1895
▁recent	-1896
▁treat	-1897
ids	-1898
ole	-1899
ogn	-1900
ached	-1901
▁(2	-1902
ada	-1903
▁proper	-1904
▁Some	-1905
▁pa	-1906
abor	-1907
minist	-1908
▁however	-1909
▁rights	-1910
▁asked	-1911
▁Ag	-1912
▁population	-1913
▁{	-1914
▁Em	-1915
eks	-1916
▁dest	-1917
▁Ang	-1918
▁face	-1919
▁effort	-1920
oon	-1921
▁position	-1922
▁decision	-1923
aul	-1924
▁football	-1925
▁enough	-1926
▁close	-1927
▁Que	-1928
▁data	-1929
▁doing	-1930
▁economic	-1931
na	-1932
▁impro	-1933
▁policy	-1934
▁means	-1935
▁Biden	-1936
▁arri	-1937
ana	-1938
▁chall	-1939
▁Council	-1940
ourt	-1941
▁signific	-1942
-19	-1943
ming	-1944
▁America	-1945
che	-1946
int	-1947
work	-1948
▁meas	-1949
▁Black	-1950
not	-1951
▁mult	-1952
▁educ	-1953
aps	-1954
▁similar	-1955
▁What	-1956
uge	-1957
▁earl	-1958
▁available	-1959
▁[	-1960
▁z	-1961
▁services	-1962
era	-1963
▁spok	-1964
▁certain	-1965
viron	-1966
att	-1967
▁France	-1968
asing	-1969
acc	-1970
ills	-1971
▁ball	-1972
▁front	-1973
▁hom	-1974
▁langu	-1975
▁office	-1976
▁ren	-1977
▁taking	-1978
▁general	-1979
▁pract	-1980
▁Ser	-1981
ask	-1982
▁Don	-1983
▁player	-1984
vision	-1985
▁saying	-1986
▁percent	-1987
lex	-1988
▁My	-1989
▁phot	-1990
▁band	-1991
▁reve	-1992
▁weeks	-1993
dle	-1994
▁Pet	-1995
▁thing	-1996
▁dr	-1997
▁field	-1998
▁Sen	-1999
▁likely	-2000
▁dev	-2001
ners	-2002
▁English	-2003
olution	-2004
ined	-2005
aughter	-2006
ports	-2007
▁comb	-2008
off	-2009
▁almost	-2010
wh	-2011
ps	-2012
▁sex	-2013
▁course	-2014
▁areas	-2015
ficult	-2016
▁himself	-2017
isc	-2018
▁exc	-2019
▁100	-2020
▁match	-2021
ows	-2022
▁La	-2023
▁worked	-2024
▁vill	-2025
▁threat	-2026
▁International	-2027
▁forces	-2028
▁moved	-2029
den	-2030
▁character	-2031
▁behind	-2032
▁continued	-2033
▁fav	-2034
▁continue	-2035
ederal	-2036
▁action	-2037
ressed	-2038
ospital	-2039
ensive	-2040
ington	-2041
▁woman	-2042
▁William	-2043
▁super	-2044
aring	-2045
▁difficult	-2046
▁dou	-2047
▁total	-2048
oms	-2049
avy	-2050
▁individ	-2051
▁tre	-2052
▁hours	-2053
idge	-2054
▁Ukrain	-2055
ights	-2056
▁security	-2057
▁Air	-2058
▁paren	-2059
ators	-2060
▁outside	-2061
▁popular	-2062
▁School	-2063
▁yet	-2064
atur	-2065
▁squ	-2066
▁begin	-2067
ruction	-2068
▁break	-2069
▁compan	-2070
▁ground	-2071
ampionship	-2072
▁Soc	-2073
▁net	-2074
▁track	-2075
vironment	-2076
▁mag	-2077
iding	-2078
▁connect	-2079
▁bring	-2080
ware	-2081
▁tell	-2082
ns	-2083
▁financial	-2084
▁sus	-2085
▁killed	-2086
itution	-2087
▁enc	-2088
▁included	-2089
bo	-2090
pecially	-2091
▁significant	-2092
hers	-2093
▁cho	-2094
▁respons	-2095
▁According	-2096
▁research	-2097
selves	-2098
de	-2099
▁born	-2100
oph	-2101
▁Pal	-2102
▁News	-2103
▁saw	-2104
▁Cor	-2105
▁Per	-2106
▁Comp	-2107
▁cust	-2108
▁sour	-2109
▁bar	-2110
▁question	-2111
▁statement	-2112
chie	-2113
▁neg	-2114
▁tele	-2115
▁vol	-2116
▁Just	-2117
▁states	-2118
▁mass	-2119
arter	-2120
▁believe	-2121
▁191	-2122
▁coll	-2123
▁ago	-2124
▁Park	-2125
▁Court	-2126
▁rad	-2127
▁key	-2128
pped	-2129
▁served	-2130
▁ens	-2131
▁living	-2132
▁dam	-2133
▁Sm	-2134
▁space	-2135
▁prim	-2136
▁192	-2137
▁25	-2138
ma	-2139
▁doc	-2140
umb	-2141
now	-2142
sequ	-2143
reg	-2144
▁round	-2145
atures	-2146
aled	-2147
▁stru	-2148
▁lat	-2149
▁production	-2150
▁mot	-2151
men	-2152
▁cases	-2153
▁Ne	-2154
▁clos	-2155
itter	-2156
▁stay	-2157
▁From	-2158
▁travel	-2159
▁title	-2160
▁wanted	-2161
▁cele	-2162
▁fig	-2163
▁Germany	-2164
ror	-2165
ae	-2166
▁emer	-2167
▁Sund	-2168
▁students	-2169
▁respect	-2170
▁exec	-2171
▁global	-2172
time	-2173
raft	-2174
sec	-2175
▁expected	-2176
▁coming	-2177
eneral	-2178
ford	-2179
▁2022	-2180
▁quick	-2181
ara	-2182
▁actually	-2183
alt	-2184
▁issues	-2185
▁cris	-2186
itor	-2187
▁Mond	-2188
▁staff	-2189
ID	-2190
▁50	-2191
back	-2192
utin	-2193
iers	-2194
icle	-2195
lands	-2196
hold	-2197
▁director	-2198
▁road	-2199
▁gen	-2200
▁circ	-2201
aving	-2202
▁introdu	-2203
oyal	-2204
rab	-2205
▁original	-2206
▁suff	-2207
utions	-2208
▁earlier	-2209
▁Ber	-2210
rap	-2211
▁getting	-2212
▁Friday	-2213
ening	-2214
▁independ	-2215
order	-2216
▁Australia	-2217
▁especially	-2218
▁Fin	-2219
▁arg	-2220
▁bene	-2221
▁ap	-2222
▁recogn	-2223
▁billion	-2224
▁companies	-2225
▁exist	-2226
▁created	-2227
ctions	-2228
▁Des	-2229
ibility	-2230
hib	-2231
▁playing	-2232
▁wind	-2233
▁potential	-2234
▁1,	-2235
▁issue	-2236
▁works	-2237
▁influ	-2238
rag	-2239
ference	-2240
amb	-2241
▁various	-2242
▁moment	-2243
▁County	-2244
medi	-2245
andemic	-2246
▁ste	-2247
▁civil	-2248
▁seven	-2249
ought	-2250
▁promot	-2251
▁gas	-2252
▁red	-2253
▁impact	-2254
▁eight	-2255
▁Sch	-2256
▁station	-2257
▁San	-2258
▁Mary	-2259
▁East	-2260
▁broad	-2261
▁trying	-2262
▁TV	-2263
▁soon	-2264
isl	-2265
▁wife	-2266
▁hon	-2267
▁famil	-2268
▁Phil	-2269
asion	-2270
ournal	-2271
▁opportun	-2272
▁officials	-2273
rought	-2274
▁makes	-2275
▁Mark	-2276
▁Bro	-2277
▁friends	-2278
▁targ	-2279
▁shows	-2280
▁pric	-2281
▁Mich	-2282
▁heart	-2283
▁capital	-2284
▁understand	-2285
▁relationship	-2286
▁particip	-2287
▁CO	-2288
▁Cong	-2289
▁provide	-2290
▁typ	-2291
▁discuss	-2292
▁Party	-2293
ender	-2294
rug	-2295
▁Monday	-2296
inese	-2297
▁mater	-2298
.,	-2299
▁doesn	-2300
▁cand	-2301
▁entire	-2302
▁rather	-2303
▁abs	-2304
▁Sam	-2305
▁histor	-2306
▁Im	-2307
▁fell	-2308
▁hy	-2309
▁vir	-2310
ateg	-2311
utive	-2312
▁Calif	-2313
uff	-2314
▁located	-2315
▁wa	-2316
▁administ	-2317
▁industry	-2318
▁increase	-2319
▁looking	-2320
▁jud	-2321
omb	-2322
▁Mor	-2323
ij	-2324
▁Hol	-2325
▁forward	-2326
▁north	-2327
▁feature	-2328
emy	-2329
▁experience	-2330
ino	-2331
irm	-2332
▁contrib	-2333
▁girl	-2334
gr	-2335
omm	-2336
▁deter	-2337
▁minutes	-2338
▁mess	-2339
▁study	-2340
▁gave	-2341
▁24	-2342
▁step	-2343
▁summer	-2344
istic	-2345
▁Sunday	-2346
▁leader	-2347
▁charg	-2348
ients	-2349
oint	-2350
itch	-2351
anish	-2352
▁becom	-2353
▁black	-2354
cy	-2355
▁EU	-2356
▁phys	-2357
▁Ro	-2358
aker	-2359
▁Scott	-2360
▁prob	-2361
orthern	-2362
▁currently	-2363
▁hope	-2364
▁achie	-2365
▁south	-2366
▁species	-2367
▁Scot	-2368
▁Tues	-2369
▁Bel	-2370
ological	-2371
▁Port	-2372
▁loss	-2373
▁considered	-2374
aur	-2375
▁tro	-2376
ael	-2377
30	-2378
▁ship	-2379
fl	-2380
▁Dr	-2381
▁problem	-2382
▁sure	-2383
▁Wed	-2384
-2	-2385
▁accept	-2386
sw	-2387
▁growth	-2388
ius	-2389
ban	-2390
▁brother	-2391
▁Californ	-2392
▁Tuesday	-2393
▁risk	-2394
ify	-2395
▁imm	-2396
▁bit	-2397
oved	-2398
ander	-2399
duct	-2400
bor	-2401
▁Ukrainian	-2402
▁price	-2403
retary	-2404
▁Wash	-2405
▁version	-2406
raz	-2407
hing	-2408
▁contract	-2409
▁pandemic	-2410
atural	-2411
▁oil	-2412
ift	-2413
▁situation	-2414
ceed	-2415
▁Not	-2416
born	-2417
▁anim	-2418
ims	-2419
ico	-2420
▁higher	-2421
▁release	-2422
▁arch	-2423
▁stage	-2424
▁white	-2425
▁Thurs	-2426
▁Net	-2427
▁self	-2428
▁David	-2429
▁share	-2430
▁tradition	-2431
▁events	-2432
▁High	-2433
▁Queen	-2434
▁21	-2435
▁gun	-2436
▁White	-2437
▁associ	-2438
mon	-2439
▁Red	-2440
▁defe	-2441
▁Thursday	-2442
▁groups	-2443
aged	-2444
▁crisis	-2445
atives	-2446
▁longer	-2447
▁California	-2448
▁either	-2449
▁Africa	-2450
ule	-2451
▁environment	-2452
▁appeared	-2453
▁...	-2454
▁involved	-2455
rick	-2456
▁Rec	-2457
▁po	-2458
▁separ	-2459
▁legal	-2460
▁aver	-2461
▁creat	-2462
▁Chinese	-2463
▁cross	-2464
▁daughter	-2465
▁race	-2466
ental	-2467
▁Department	-2468
▁rate	-2469
ille	-2470
▁origin	-2471
▁den	-2472
▁meeting	-2473
▁Washington	-2474
▁walk	-2475
etimes	-2476
▁visit	-2477
▁Art	-2478
▁whole	-2479
▁James	-2480
▁returned	-2481
▁private	-2482
▁tour	-2483
▁ey	-2484
fully	-2485
▁focus	-2486
anks	-2487
▁Tur	-2488
▁described	-2489
▁rev	-2490
▁needs	-2491
▁Reg	-2492
band	-2493
▁force	-2494
▁Indian	-2495
▁lives	-2496
▁leave	-2497
▁goal	-2498
▁Wednes	-2499
▁established	-2500
▁Act	-2501
▁fans	-2502
ien	-2503
istan	-2504
iant	-2505
ray	-2506
ilities	-2507
▁room	-2508
▁Kh	-2509
▁reason	-2510
erous	-2511
▁opt	-2512
ests	-2513
▁largest	-2514
ude	-2515
10	-2516
ially	-2517
▁Wednesday	-2518
▁mem	-2519
iation	-2520
▁Char	-2521
orning	-2522
ructure	-2523
ends	-2524
▁term	-2525
.'	-2526
ert	-2527
itiz	-2528
▁shot	-2529
▁arrest	-2530
▁award	-2531
▁Cov	-2532
▁sound	-2533
▁affect	-2534
ores	-2535
▁site	-2536
▁Pat	-2537
▁hot	-2538
rael	-2539
▁Now	-2540
▁Johnson	-2541
uf	-2542
arian	-2543
▁ill	-2544
▁candid	-2545
▁themselves	-2546
▁economy	-2547
ique	-2548
ama	-2549
▁epis	-2550
▁minister	-2551
▁review	-2552
▁serious	-2553
▁Government	-2554
lement	-2555
▁joined	-2556
▁language	-2557
▁hospital	-2558
▁40	-2559
iple	-2560
▁workers	-2561
lo	-2562
cing	-2563
▁whose	-2564
▁Paul	-2565
dom	-2566
▁everything	-2567
▁assist	-2568
itute	-2569
▁Qu	-2570
▁dead	-2571
ica	-2572
▁vacc	-2573
▁consum	-2574
▁aud	-2575
▁interview	-2576
▁written	-2577
reme	-2578
rong	-2579
▁First	-2580
▁immedi	-2581
▁hous	-2582
▁watch	-2583
▁bank	-2584
▁brought	-2585
outhern	-2586
▁Cons	-2587
▁Putin	-2588
▁material	-2589
▁mer	-2590
▁itself	-2591
▁recently	-2592
▁needed	-2593
▁leading	-2594
airs	-2595
imately	-2596
▁shoot	-2597
▁General	-2598
ees	-2599
▁Parliament	-2600
▁chief	-2601
oper	-2602
▁Roman	-2603
▁reach	-2604
▁Ste	-2605
▁specific	-2606
rated	-2607
▁nearly	-2608
▁prices	-2609
use	-2610
atory	-2611
▁surv	-2612
irth	-2613
onse	-2614
osition	-2615
▁vote	-2616
▁App	-2617
▁parents	-2618
▁Scotland	-2619
▁although	-2620
▁ten	-2621
▁Ms	-2622
▁pred	-2623
fect	-2624
▁couple	-2625
▁Mad	-2626
▁performance	-2627
down	-2628
▁cannot	-2629
▁nation	-2630
▁terms	-2631
▁Associ	-2632
ider	-2633
▁demand	-2634
▁Satur	-2635
ault	-2636
icture	-2637
▁sen	-2638
▁Sun	-2639
▁decided	-2640
▁modern	-2641
▁cast	-2642
▁consider	-2643
hood	-2644
▁fem	-2645
▁resident	-2646
▁remains	-2647
▁engine	-2648
attle	-2649
▁190	-2650
▁di	-2651
ression	-2652
▁Israel	-2653
ges	-2654
▁results	-2655
▁govern	-2656
▁veh	-2657
▁collect	-2658
ares	-2659
▁custom	-2660
ety	-2661
▁conv	-2662
▁idea	-2663
▁amount	-2664
oid	-2665
eum	-2666
▁particularly	-2667
dis	-2668
▁1.	-2669
▁boy	-2670
iger	-2671
▁Do	-2672
▁Jack	-2673
▁Ac	-2674
style	-2675
hest	-2676
▁model	-2677
▁training	-2678
▁produced	-2679
▁pers	-2680
▁throughout	-2681
ari	-2682
▁plans	-2683
▁object	-2684
▁Alex	-2685
▁Saturday	-2686
▁Congress	-2687
sy	-2688
istry	-2689
▁Since	-2690
▁regard	-2691
▁Bo	-2692
▁comment	-2693
▁followed	-2694
▁towards	-2695
▁benef	-2696
▁felt	-2697
▁webs	-2698
▁reb	-2699
▁detail	-2700
roy	-2701
▁instead	-2702
ires	-2703
▁personal	-2704
▁Angel	-2705
▁prevent	-2706
bit	-2707
▁married	-2708
aint	-2709
▁Kore	-2710
ett	-2711
▁Mart	-2712
ification	-2713
▁{\	-2714
▁cle	-2715
▁deep	-2716
▁bad	-2717
▁allowed	-2718
▁opened	-2719
▁neigh	-2720
▁plat	-2721
▁Thom	-2722
ounter	-2723
▁foreign	-2724
unt	-2725
▁/	-2726
osing	-2727
omen	-2728
▁Pri	-2729
▁education	-2730
▁grad	-2731
▁Rober	-2732
mark	-2733
alled	-2734
pro	-2735
asons	-2736
▁Twitter	-2737
▁subject	-2738
▁response	-2739
icip	-2740
▁offer	-2741
▁Group	-2742
field	-2743
aves	-2744
▁celebr	-2745
▁problems	-2746
▁coach	-2747
▁Met	-2748
▁Nor	-2749
▁lower	-2750
▁above	-2751
▁Mos	-2752
▁mur	-2753
ida	-2754
▁takes	-2755
▁prison	-2756
▁teams	-2757
▁Royal	-2758
lymp	-2759
▁Covid	-2760
onst	-2761
▁evidence	-2762
▁ahead	-2763
▁despite	-2764
▁matter	-2765
Credit	-2766
ears	-2767
▁sym	-2768
anned	-2769
▁central	-2770
ha	-2771
▁cell	-2772
ointed	-2773
▁someone	-2774
▁developed	-2775
▁range	-2776
▁Val	-2777
hem	-2778
▁rout	-2779
▁rock	-2780
▁online	-2781
▁board	-2782
▁2000	-2783
▁cal	-2784
rian	-2785
▁signed	-2786
▁anything	-2787
tt	-2788
▁spent	-2789
▁ple	-2790
▁target	-2791
▁tal	-2792
▁create	-2793
▁Street	-2794
wood	-2795
▁quarter	-2796
▁22	-2797
yc	-2798
▁fr	-2799
▁Olymp	-2800
▁strugg	-2801
▁critic	-2802
▁climate	-2803
ped	-2804
▁prior	-2805
▁regular	-2806
iction	-2807
▁running	-2808
rel	-2809
▁trade	-2810
▁norm	-2811
ny	-2812
▁pick	-2813
▁More	-2814
▁Off	-2815
▁lack	-2816
▁parts	-2817
▁decl	-2818
craft	-2819
▁necess	-2820
▁River	-2821
VID	-2822
▁pur	-2823
ession	-2824
▁everyone	-2825
▁nov	-2826
▁grand	-2827
▁changes	-2828
▁reached	-2829
▁families	-2830
▁legisl	-2831
uty	-2832
▁Mal	-2833
▁mind	-2834
▁i	-2835
▁shared	-2836
▁television	-2837
AT	-2838
▁Other	-2839
▁lab	-2840
▁obs	-2841
ya	-2842
▁er	-2843
▁increasing	-2844
▁speak	-2845
▁George	-2846
▁citiz	-2847
berg	-2848
▁Prime	-2849
▁Britain	-2850
▁village	-2851
oul	-2852
▁church	-2853
overed	-2854
▁Ear	-2855
▁Mil	-2856
ises	-2857
▁Rich	-2858
arily	-2859
▁Many	-2860
▁usually	-2861
joy	-2862
ago	-2863
▁average	-2864
▁hor	-2865
▁respond	-2866
▁esc	-2867
?"	-2868
▁probably	-2869
▁Serv	-2870
▁Gree	-2871
▁park	-2872
erve	-2873
▁includes	-2874
▁Colle	-2875
▁Ital	-2876
▁conditions	-2877
▁Commit	-2878
▁via	-2879
aries	-2880
▁pie	-2881
▁Army	-2882
▁federal	-2883
uments	-2884
▁sil	-2885
based	-2886
ements	-2887
▁Day	-2888
ki	-2889
▁plant	-2890
▁draw	-2891
▁Jos	-2892
bed	-2893
▁deliver	-2894
▁Sl	-2895
▁bi	-2896
▁rail	-2897
▁enter	-2898
In	-2899
itz	-2900
▁quite	-2901
▁relig	-2902
▁indic	-2903
uth	-2904
▁natural	-2905
▁morning	-2906
▁Mex	-2907
ully	-2908
▁.	-2909
▁buy	-2910
▁Sim	-2911
▁dig	-2912
▁website	-2913
olic	-2914
▁previously	-2915
reland	-2916
▁revealed	-2917
▁pressure	-2918
▁hop	-2919
–1	-2920
▁conduct	-2921
▁weap	-2922
▁Hist	-2923
▁Fore	-2924
▁claimed	-2925
▁base	-2926
▁Police	-2927
uit	-2928
▁Championship	-2929
isions	-2930
▁ur	-2931
▁ver	-2932
▁turned	-2933
▁poll	-2934
▁Republican	-2935
▁inside	-2936
pa	-2937
▁der	-2938
▁quickly	-2939
▁increased	-2940
ply	-2941
elled	-2942
ume	-2943
bers	-2944
▁nothing	-2945
▁majority	-2946
▁products	-2947
tr	-2948
▁laws	-2949
▁thous	-2950
▁Iran	-2951
▁God	-2952
ging	-2953
▁Committee	-2954
▁changed	-2955
▁COVID	-2956
▁Je	-2957
▁wear	-2958
▁approach	-2959
▁0	-2960
ona	-2961
▁sat	-2962
▁platform	-2963
uclear	-2964
▁drug	-2965
This	-2966
▁pack	-2967
▁pen	-2968
ension	-2969
▁occur	-2970
que	-2971
▁Cam	-2972
▁conc	-2973
▁sometimes	-2974
▁date	-2975
mitted	-2976
▁cause	-2977
▁Mid	-2978
isation	-2979
▁Jew	-2980
▁gre	-2981
▁adop	-2982
▁fourth	-2983
▁wasn	-2984
▁reports	-2985
▁enjoy	-2986
▁disp	-2987
▁deg	-2988
▁Mag	-2989
▁words	-2990
▁Swed	-2991
imin	-2992
▁technology	-2993
▁systems	-2994
ston	-2995
▁recorded	-2996
▁Lou	-2997
▁Although	-2998
▁birth	-2999
▁forced	-3000
▁Commun	-3001
oring	-3002
▁Ireland	-3003
come	-3004
▁Japanese	-3005
▁23	-3006
▁address	-3007
icles	-3008
▁require	-3009
gest	-3010
-0	-3011
ria	-3012
AS	-3013
▁meth	-3014
usband	-3015
▁Dan	-3016
▁alle	-3017
▁showed	-3018
ech	-3019
▁schools	-3020
▁medical	-3021
rast	-3022
▁provided	-3023
Wh	-3024
key	-3025
▁inflation	-3026
▁$1	-3027
▁mount	-3028
ula	-3029
▁Canada	-3030
acing	-3031
▁Bec	-3032
▁bill	-3033
▁caused	-3034
▁anti	-3035
▁qual	-3036
▁block	-3037
ux	-3038
▁ended	-3039
ites	-3040
▁box	-3041
▁features	-3042
▁vo	-3043
▁sense	-3044
▁rules	-3045
▁confir	-3046
aily	-3047
▁scient	-3048
undred	-3049
▁Charles	-3050
▁seek	-3051
▁incident	-3052
▁designed	-3053
▁required	-3054
▁battle	-3055
▁improve	-3056
▁Franc	-3057
▁People	-3058
▁professional	-3059
▁Tex	-3060
▁princ	-3061
▁hol	-3062
▁Western	-3063
hi	-3064
▁Michael	-3065
▁peace	-3066
▁Church	-3067
▁maintain	-3068
▁Paris	-3069
▁inn	-3070
▁dram	-3071
aught	-3072
▁eventually	-3073
iment	-3074
▁efforts	-3075
▁dro	-3076
▁dise	-3077
estival	-3078
▁border	-3079
▁levels	-3080
▁applic	-3081
like	-3082
▁Two	-3083
▁value	-3084
pir	-3085
▁remained	-3086
▁district	-3087
▁authorities	-3088
▁complet	-3089
▁189	-3090
▁Most	-3091
la	-3092
lying	-3093
▁tried	-3094
▁territ	-3095
▁founded	-3096
▁murder	-3097
oviet	-3098
▁gold	-3099
▁Sal	-3100
▁und	-3101
▁Ham	-3102
▁Los	-3103
▁Ben	-3104
▁happened	-3105
▁costs	-3106
▁journal	-3107
▁Of	-3108
▁Italian	-3109
▁huge	-3110
bon	-3111
usion	-3112
▁positive	-3113
▁react	-3114
▁Spanish	-3115
▁Arch	-3116
reng	-3117
St	-3118
▁Bank	-3119
▁ess	-3120
▁Another	-3121
▁cat	-3122
▁carry	-3123
etty	-3124
▁Op	-3125
ords	-3126
owers	-3127
▁km	-3128
▁Spe	-3129
▁beginning	-3130
▁liter	-3131
raw	-3132
▁transfer	-3133
bour	-3134
▁consist	-3135
}}	-3136
right	-3137
▁compl	-3138
▁2010	-3139
▁competition	-3140
▁conflic	-3141
RE	-3142
▁document	-3143
▁transport	-3144
▁Mat	-3145
▁tourn	-3146
▁dom	-3147
▁san	-3148
▁helped	-3149
ufact	-3150
▁mix	-3151
▁Over	-3152
▁husband	-3153
▁manager	-3154
▁culture	-3155
▁launched	-3156
display	-3157
▁administration	-3158
▁type	-3159
▁claims	-3160
ibr	-3161
▁Super	-3162
▁BBC	-3163
gen	-3164
mas	-3165
▁Dist	-3166
▁isn	-3167
▁extra	-3168
▁Its	-3169
▁movement	-3170
▁2.	-3171
igned	-3172
▁Stud	-3173
▁highest	-3174
▁opportunity	-3175
bre	-3176
iff	-3177
▁upon	-3178
▁bur	-3179
▁true	-3180
▁safety	-3181
▁contact	-3182
displaystyle	-3183
▁Mac	-3184
body	-3185
▁College	-3186
▁2020	-3187
▁opening	-3188
▁elected	-3189
▁successful	-3190
▁victory	-3191
oke	-3192
▁cop	-3193
▁Sing	-3194
▁goes	-3195
▁Law	-3196
ams	-3197
▁Lat	-3198
▁27	-3199
▁acqu	-3200
cel	-3201
▁Sa	-3202
▁troops	-3203
▁sn	-3204
rial	-3205
ero	-3206
▁Bu	-3207
▁Cap	-3208
ography	-3209
▁prem	-3210
▁teac	-3211
▁26	-3212
▁subst	-3213
aded	-3214
▁individual	-3215
▁hands	-3216
▁latest	-3217
ishing	-3218
rol	-3219
unk	-3220
iance	-3221
▁progress	-3222
▁Mer	-3223
ript	-3224
rief	-3225
▁nine	-3226
▁failed	-3227
▁28	-3228
▁answ	-3229
▁Soviet	-3230
▁spot	-3231
▁ensure	-3232
▁challen	-3233
▁chance	-3234
urt	-3235
▁heard	-3236
▁sle	-3237
▁debut	-3238
face	-3239
opp	-3240
▁rise	-3241
▁Prince	-3242
ength	-3243
▁Italy	-3244
anced	-3245
ground	-3246
▁Smith	-3247
▁electric	-3248
▁bud	-3249
▁African	-3250
iles	-3251
▁wrong	-3252
▁Association	-3253
▁Hall	-3254
▁propos	-3255
▁Const	-3256
▁purch	-3257
▁Texas	-3258
uing	-3259
▁citizens	-3260
▁dang	-3261
▁goals	-3262
asc	-3263
▁mis	-3264
▁estim	-3265
▁officers	-3266
ym	-3267
▁investigation	-3268
iences	-3269
▁formed	-3270
▁ways	-3271
▁Del	-3272
▁streng	-3273
▁Christian	-3274
force	-3275
▁size	-3276
▁lif	-3277
▁property	-3278
▁prep	-3279
vey	-3280
▁dog	-3281
pper	-3282
itect	-3283
ka	-3284
▁treatment	-3285
▁finally	-3286
mercial	-3287
▁island	-3288
▁Times	-3289
▁occup	-3290
▁Trans	-3291
▁doub	-3292
AP	-3293
▁Ir	-3294
▁style	-3295
▁pp	-3296
▁Grand	-3297
omet	-3298
▁blood	-3299
▁wall	-3300
▁senior	-3301
▁leaving	-3302
▁Australian	-3303
▁worth	-3304
▁nuclear	-3305
▁Gold	-3306
▁Vir	-3307
igr	-3308
olf	-3309
▁construction	-3310
alys	-3311
eds	-3312
▁except	-3313
van	-3314
▁Che	-3315
▁temper	-3316
▁method	-3317
▁Great	-3318
uter	-3319
▁alleged	-3320
mar	-3321
▁destroy	-3322
while	-3323
▁beaut	-3324
▁agreement	-3325
▁Joe	-3326
▁Hen	-3327
▁slow	-3328
▁Central	-3329
lected	-3330
anche	-3331
▁additional	-3332
wide	-3333
▁raised	-3334
aby	-3335
▁growing	-3336
▁Institute	-3337
ding	-3338
▁Arab	-3339
▁biggest	-3340
illed	-3341
▁attention	-3342
▁passed	-3343
orters	-3344
▁society	-3345
▁complex	-3346
rang	-3347
▁Cont	-3348
ips	-3349
▁simply	-3350
▁seems	-3351
▁episode	-3352
▁sens	-3353
▁Bre	-3354
▁trib	-3355
▁finished	-3356
aging	-3357
cow	-3358
ena	-3359
▁confirmed	-3360
light	-3361
▁2008	-3362
▁repe	-3363
▁2,	-3364
▁firm	-3365
▁poor	-3366
▁measures	-3367
bert	-3368
▁numbers	-3369
▁elections	-3370
akh	-3371
anded	-3372
▁paid	-3373
▁defin	-3374
He	-3375
annel	-3376
▁Center	-3377
izing	-3378
▁middle	-3379
fort	-3380
▁188	-3381
▁infect	-3382
▁Health	-3383
▁scored	-3384
▁anyone	-3385
▁cry	-3386
▁Flor	-3387
▁2011	-3388
▁nar	-3389
▁Dis	-3390
▁appointed	-3391
ibly	-3392
▁closed	-3393
▁soft	-3394
▁Cr	-3395
▁manufact	-3396
▁challeng	-3397
▁writing	-3398
agram	-3399
▁supply	-3400
aining	-3401
▁Ol	-3402
▁Island	-3403
▁source	-3404
akers	-3405
▁Angeles	-3406
▁(200	-3407
▁rates	-3408
AR	-3409
sen	-3410
▁Bor	-3411
ols	-3412
▁noted	-3413
▁disapp	-3414
▁centre	-3415
itness	-3416
▁=	-3417
▁encou	-3418
uals	-3419
▁bal	-3420
oral	-3421
▁violence	-3422
▁aircraft	-3423
▁hundred	-3424
▁immediately	-3425
room	-3426
rupt	-3427
▁susp	-3428
▁mention	-3429
▁spread	-3430
▁Fil	-3431
lam	-3432
▁wants	-3433
▁exam	-3434
▁partners	-3435
▁cam	-3436
▁winning	-3437
▁function	-3438
ems	-3439
ously	-3440
▁regul	-3441
▁text	-3442
kn	-3443
ication	-3444
edy	-3445
book	-3446
▁coast	-3447
ortion	-3448
▁meaning	-3449
▁Scottish	-3450
▁officer	-3451
▁pan	-3452
ademy	-3453
▁lay	-3454
▁resour	-3455
▁Ter	-3456
▁behav	-3457
▁network	-3458
▁establish	-3459
▁Senate	-3460
▁Inter	-3461
▁introduced	-3462
▁independent	-3463
▁invasion	-3464
▁center	-3465
iter	-3466
▁Thomas	-3467
ugh	-3468
▁primary	-3469
sych	-3470
▁army	-3471
▁knew	-3472
▁McC	-3473
ken	-3474
burg	-3475
▁Rob	-3476
▁emb	-3477
▁fast	-3478
▁completed	-3479
▁implement	-3480
▁ult	-3481
▁novel	-3482
▁2012	-3483
201	-3484
▁Div	-3485
▁Moscow	-3486
▁Wil	-3487
oti	-3488
▁whom	-3489
▁“	-3490
uries	-3491
▁link	-3492
▁fif	-3493
▁mill	-3494
60	-3495
▁league	-3496
▁giving	-3497
razil	-3498
▁runs	-3499
ghan	-3500
▁cru	-3501
▁performed	-3502
haps	-3503
eal	-3504
▁multiple	-3505
▁complete	-3506
▁scene	-3507
roll	-3508
▁trial	-3509
set	-3510
utch	-3511
term	-3512
▁believed	-3513
▁Ke	-3514
AN	-3515
▁books	-3516
ado	-3517
▁Star	-3518
▁60	-3519
▁frequ	-3520
ipl	-3521
omp	-3522
anda	-3523
▁Ky	-3524
Ch	-3525
▁beg	-3526
▁active	-3527
▁Offic	-3528
▁starting	-3529
▁wid	-3530
uke	-3531
▁Best	-3532
▁Niger	-3533
astic	-3534
▁tru	-3535
▁spokes	-3536
▁decades	-3537
▁cities	-3538
▁Direct	-3539
adium	-3540
ancy	-3541
▁ability	-3542
▁related	-3543
▁easy	-3544
ola	-3545
ordin	-3546
ady	-3547
▁actor	-3548
▁shown	-3549
▁Green	-3550
▁committee	-3551
▁quality	-3552
▁Bill	-3553
40	-3554
▁Even	-3555
▁fle	-3556
riage	-3557
▁else	-3558
▁2021	-3559
ledge	-3560
▁miles	-3561
ios	-3562
▁appears	-3563
change	-3564
▁Company	-3565
You	-3566
▁east	-3567
part	-3568
▁green	-3569
▁sem	-3570
▁Bay	-3571
ani	-3572
▁integ	-3573
▁Mod	-3574
gar	-3575
iled	-3576
▁Office	-3577
▁heavy	-3578
▁executive	-3579
▁beat	-3580
iminal	-3581
rav	-3582
▁traditional	-3583
▁stra	-3584
oud	-3585
▁Brazil	-3586
▁distrib	-3587
▁mach	-3588
gress	-3589
▁Robert	-3590
▁Spain	-3591
▁amb	-3592
▁tournament	-3593
▁patients	-3594
isters	-3595
▁accused	-3596
▁placed	-3597
▁chair	-3598
▁stated	-3599
IN	-3600
▁therefore	-3601
TV	-3602
rage	-3603
▁Aut	-3604
▁Ret	-3605
imum	-3606
▁Democratic	-3607
▁twe	-3608
▁perfect	-3609
▁Lab	-3610
▁sal	-3611
vert	-3612
▁surround	-3613
▁2014	-3614
▁movie	-3615
▁rank	-3616
▁fair	-3617
▁Miss	-3618
▁commercial	-3619
▁Vict	-3620
▁Georg	-3621
▁practice	-3622
vention	-3623
edom	-3624
▁2009	-3625
odes	-3626
▁Play	-3627
pris	-3628
za	-3629
ocr	-3630
▁questions	-3631
▁female	-3632
▁recomm	-3633
▁attract	-3634
▁student	-3635
▁2015	-3636
▁rule	-3637
▁compared	-3638
▁que	-3639
▁Their	-3640
▁lived	-3641
▁card	-3642
▁Cath	-3643
▁management	-3644
▁prec	-3645
▁kids	-3646
▁king	-3647
ote	-3648
▁west	-3649
▁becoming	-3650
unicip	-3651
▁fully	-3652
▁parties	-3653
ont	-3654
▁MP	-3655
▁operations	-3656
▁thousands	-3657
▁looks	-3658
chan	-3659
enced	-3660
ville	-3661
uated	-3662
icro	-3663
▁Americans	-3664
▁Ma	-3665
▁swe	-3666
▁nature	-3667
▁Mel	-3668
▁pret	-3669
ester	-3670
▁agreed	-3671
▁clean	-3672
▁phone	-3673
hab	-3674
▁limited	-3675
oo	-3676
▁Vol	-3677
ervative	-3678
▁aim	-3679
▁wel	-3680
▁happy	-3681
eed	-3682
aches	-3683
▁songs	-3684
agn	-3685
ellig	-3686
▁et	-3687
▁offered	-3688
▁Christmas	-3689
_{	-3690
ples	-3691
▁2007	-3692
eter	-3693
▁sust	-3694
▁table	-3695
▁Def	-3696
▁kept	-3697
▁arrested	-3698
▁ban	-3699
ala	-3700
▁Peter	-3701
▁unc	-3702
▁arm	-3703
▁Both	-3704
▁Under	-3705
▁request	-3706
▁Prem	-3707
▁counter	-3708
het	-3709
va	-3710
▁below	-3711
▁sort	-3712
▁moving	-3713
▁purp	-3714
▁arrived	-3715
▁Tod	-3716
▁ge	-3717
▁Democrats	-3718
▁sector	-3719
▁completely	-3720
▁unf	-3721
▁standard	-3722
▁leadership	-3723
▁fix	-3724
There	-3725
▁Sup	-3726
arent	-3727
well	-3728
unch	-3729
▁letter	-3730
▁achieve	-3731
▁happen	-3732
▁demonst	-3733
▁looked	-3734
▁2016	-3735
▁Inc	-3736
▁mob	-3737
gency	-3738
▁Mo	-3739
▁gone	-3740
inks	-3741
▁exact	-3742
enty	-3743
▁screen	-3744
▁path	-3745
▁187	-3746
azine	-3747
▁launch	-3748
astern	-3749
ounds	-3750
oses	-3751
▁residents	-3752
estic	-3753
▁gets	-3754
▁fuel	-3755
▁favour	-3756
rid	-3757
lor	-3758
▁concerns	-3759
▁annual	-3760
▁lines	-3761
▁Secretary	-3762
▁Rad	-3763
▁check	-3764
▁politic	-3765
acity	-3766
▁status	-3767
▁Then	-3768
▁necessary	-3769
▁activities	-3770
IS	-3771
▁Despite	-3772
▁Kingdom	-3773
▁places	-3774
▁remember	-3775
▁rap	-3776
▁log	-3777
▁charge	-3778
person	-3779
ini	-3780
▁ready	-3781
ste	-3782
rison	-3783
ils	-3784
▁Florida	-3785
erved	-3786
▁issued	-3787
ricult	-3788
▁sexual	-3789
▁har	-3790
resh	-3791
▁Mur	-3792
ato	-3793
▁("	-3794
▁strik	-3795
▁rain	-3796
▁lock	-3797
▁UN	-3798
▁ord	-3799
▁Music	-3800
80	-3801
▁29	-3802
▁alone	-3803
▁spir	-3804
▁Louis	-3805
board	-3806
▁adding	-3807
▁replaced	-3808
▁calls	-3809
▁transl	-3810
imb	-3811
▁Frank	-3812
▁extrem	-3813
▁minor	-3814
▁reform	-3815
yan	-3816
known	-3817
▁safe	-3818
▁southern	-3819
▁crime	-3820
▁sales	-3821
▁186	-3822
▁Chief	-3823
▁plays	-3824
win	-3825
▁anc	-3826
▁Earth	-3827
▁Award	-3828
ER	-3829
▁speech	-3830
▁Francis	-3831
▁Prof	-3832
▁wide	-3833
25	-3834
▁meant	-3835
uman	-3836
▁fighting	-3837
▁search	-3838
▁conflict	-3839
▁negoti	-3840
alysis	-3841
ampion	-3842
▁investment	-3843
antic	-3844
▁convers	-3845
▁disease	-3846
▁avoid	-3847
▁push	-3848
▁Last	-3849
▁Win	-3850
cher	-3851
▁3.	-3852
▁Mexico	-3853
▁attacks	-3854
▁2013	-3855
▁figure	-3856
▁double	-3857
▁famous	-3858
,'	-3859
▁2006	-3860
▁subsequ	-3861
▁films	-3862
▁carried	-3863
ocks	-3864
▁Sant	-3865
▁originally	-3866
▁agency	-3867
ables	-3868
▁District	-3869
▁cancer	-3870
▁length	-3871
atively	-3872
▁Justice	-3873
▁architect	-3874
rec	-3875
rowd	-3876
▁dark	-3877
▁basis	-3878
▁responsible	-3879
▁generally	-3880
▁Mount	-3881
ulated	-3882
▁brief	-3883
ulf	-3884
▁Richard	-3885
▁Instagram	-3886
▁Women	-3887
▁altern	-3888
▁organization	-3889
▁drive	-3890
etic	-3891
▁Second	-3892
▁condition	-3893
▁damage	-3894
▁message	-3895
ading	-3896
ties	-3897
▁Member	-3898
venue	-3899
icated	-3900
▁radio	-3901
more	-3902
▁Gar	-3903
▁directly	-3904
▁hear	-3905
▁communities	-3906
▁highly	-3907
▁conference	-3908
▁sea	-3909
▁wild	-3910
illa	-3911
▁emot	-3912
▁budget	-3913
▁paper	-3914
▁rare	-3915
▁)	-3916
▁sports	-3917
▁weapons	-3918
▁Sir	-3919
rey	-3920
▁Service	-3921
▁farm	-3922
▁adult	-3923
orrow	-3924
▁pair	-3925
▁continues	-3926
▁bed	-3927
▁grant	-3928
going	-3929
500	-3930
▁flight	-3931
▁doll	-3932
ivity	-3933
▁score	-3934
▁settle	-3935
▁Fer	-3936
▁spl	-3937
▁Academy	-3938
▁Cast	-3939
rate	-3940
▁mission	-3941
▁2018	-3942
▁ang	-3943
▁income	-3944
▁homes	-3945
▁bey	-3946
▁sett	-3947
▁Club	-3948
▁suppl	-3949
▁Sum	-3950
▁content	-3951
▁Supreme	-3952
▁essential	-3953
▁Ant	-3954
▁Ver	-3955
porary	-3956
bl	-3957
ón	-3958
▁ones	-3959
▁beyond	-3960
▁trust	-3961
▁display	-3962
▁Atl	-3963
▁Chic	-3964
▁sister	-3965
iring	-3966
ipped	-3967
▁winter	-3968
▁Society	-3969
gypt	-3970
▁challenge	-3971
▁nomin	-3972
▁Brown	-3973
▁domin	-3974
▁protection	-3975
▁uns	-3976
▁Every	-3977
▁aware	-3978
▁partner	-3979
▁weekend	-3980
▁wat	-3981
▁straight	-3982
▁ran	-3983
▁determin	-3984
▁Press	-3985
zz	-3986
▁feet	-3987
▁Wales	-3988
icted	-3989
vest	-3990
▁touch	-3991
west	-3992
embly	-3993
gn	-3994
▁mostly	-3995
▁Up	-3996
▁heat	-3997
'.	-3998
▁directed	-3999
▁household	-4000
▁roll	-4001
bur	-4002
▁sport	-4003
▁,	-4004
▁eth	-4005
▁wond	-4006
ocracy	-4007
▁Den	-4008
▁science	-4009
▁singer	-4010
eph	-4011
▁studies	-4012
▁commission	-4013
road	-4014
▁greater	-4015
ador	-4016
night	-4017
▁physical	-4018
ushed	-4019
▁roy	-4020
house	-4021
▁prime	-4022
▁appl	-4023
▁names	-4024
▁supported	-4025
▁brand	-4026
▁flag	-4027
kin	-4028
▁council	-4029
▁artist	-4030
▁learn	-4031
▁ded	-4032
itation	-4033
itude	-4034
aval	-4035
▁older	-4036
anchester	-4037
▁31	-4038
miss	-4039
▁proposed	-4040
▁fort	-4041
▁receive	-4042
▁sche	-4043
▁Mean	-4044
▁customers	-4045
▁1990	-4046
chers	-4047
▁influence	-4048
▁corn	-4049
AC	-4050
▁Museum	-4051
▁normal	-4052
▁fit	-4053
wan	-4054
▁northern	-4055
▁Northern	-4056
▁Social	-4057
▁Bur	-4058
▁Because	-4059
▁CE	-4060
atre	-4061
2)	-4062
**	-4063
▁Follow	-4064
▁Martin	-4065
▁resources	-4066
▁bomb	-4067
▁collection	-4068
arden	-4069
▁structure	-4070
▁initi	-4071
gent	-4072
▁buildings	-4073
▁wood	-4074
▁Pak	-4075
If	-4076
mission	-4077
▁Carl	-4078
▁rac	-4079
▁larger	-4080
▁concept	-4081
▁Egypt	-4082
▁Rock	-4083
▁operation	-4084
ura	-4085
▁Er	-4086
erc	-4087
sp	-4088
▁users	-4089
▁stories	-4090
adian	-4091
▁hair	-4092
▁Jud	-4093
▁obtain	-4094
orks	-4095
▁religious	-4096
▁projects	-4097
▁approx	-4098
▁Korea	-4099
▁actions	-4100
▁2017	-4101
▁seat	-4102
▁du	-4103
▁crowd	-4104
▁policies	-4105
▁voters	-4106
▁restrict	-4107
▁critical	-4108
▁appearance	-4109
▁jobs	-4110
▁abortion	-4111
▁stock	-4112
▁sell	-4113
▁save	-4114
▁injury	-4115
▁reality	-4116
sea	-4117
▁talking	-4118
▁Leg	-4119
isted	-4120
▁reject	-4121
ented	-4122
▁businesses	-4123
▁capacity	-4124
▁gives	-4125
▁Found	-4126
ashion	-4127
▁river	-4128
▁featured	-4129
rative	-4130
▁restaur	-4131
▁politics	-4132
▁alongside	-4133
▁burn	-4134
inet	-4135
ctors	-4136
▁speed	-4137
ano	-4138
▁Jer	-4139
▁Here	-4140
nel	-4141
▁princip	-4142
▁Victor	-4143
▁attend	-4144
▁simple	-4145
▁sun	-4146
▁managed	-4147
aling	-4148
▁thus	-4149
▁strike	-4150
▁tweet	-4151
istics	-4152
▁lawy	-4153
–19	-4154
▁Harry	-4155
lined	-4156
▁x	-4157
orial	-4158
▁chem	-4159
▁Greek	-4160
▁Carol	-4161
▁exhib	-4162
▁overall	-4163
▁reduce	-4164
▁offers	-4165
▁discovered	-4166
▁soldiers	-4167
orter	-4168
▁awarded	-4169
▁Manchester	-4170
▁door	-4171
ita	-4172
▁shooting	-4173
friend	-4174
▁opin	-4175
▁suspect	-4176
▁purs	-4177
iest	-4178
▁digital	-4179
inct	-4180
▁criminal	-4181
▁activity	-4182
▁upd	-4183
▁separate	-4184
▁psych	-4185
▁Ty	-4186
▁spending	-4187
▁pet	-4188
▁Chicago	-4189
encies	-4190
▁£1	-4191
!"	-4192
▁employees	-4193
▁Our	-4194
▁dire	-4195
II	-4196
▁squad	-4197
ellow	-4198
▁fear	-4199
ili	-4200
▁#	-4201
▁1980	-4202
ube	-4203
▁theory	-4204
200	-4205
lection	-4206
vis	-4207
iful	-4208
▁inform	-4209
▁cooper	-4210
▁entered	-4211
FA	-4212
▁lands	-4213
▁contest	-4214
▁Nations	-4215
▁Sur	-4216
iling	-4217
▁boost	-4218
▁feeling	-4219
▁Republicans	-4220
▁suffered	-4221
▁serve	-4222
▁debate	-4223
▁prosec	-4224
iplom	-4225
arant	-4226
▁marriage	-4227
▁80	-4228
ensus	-4229
▁Pre	-4230
ua	-4231
och	-4232
itar	-4233
▁uses	-4234
▁command	-4235
▁Division	-4236
▁couldn	-4237
NA	-4238
▁floor	-4239
▁individuals	-4240
▁college	-4241
overy	-4242
▁brain	-4243
▁Sil	-4244
▁parliament	-4245
▁choice	-4246
▁department	-4247
▁Islam	-4248
▁Amaz	-4249
▁sleep	-4250
▁degree	-4251
▁figures	-4252
▁absol	-4253
▁union	-4254
▁autom	-4255
▁Andrew	-4256
▁reasons	-4257
▁collabor	-4258
odies	-4259
▁3,	-4260
▁store	-4261
▁suggested	-4262
▁image	-4263
andon	-4264
▁favor	-4265
▁section	-4266
▁defend	-4267
▁aid	-4268
ship	-4269
-3	-4270
▁Catholic	-4271
▁instit	-4272
▁depart	-4273
▁Pakistan	-4274
99	-4275
▁il	-4276
▁Meanwhile	-4277
▁Road	-4278
ko	-4279
▁Open	-4280
▁Asia	-4281
▁stre	-4282
▁Year	-4283
▁remaining	-4284
▁Bet	-4285
▁Virgin	-4286
urb	-4287
▁location	-4288
▁effects	-4289
▁characters	-4290
▁mist	-4291
▁adj	-4292
▁planned	-4293
▁candidate	-4294
anch	-4295
▁blue	-4296
▁adapt	-4297
ications	-4298
▁History	-4299
▁terror	-4300
ota	-4301
▁attended	-4302
ingly	-4303
▁street	-4304
▁domestic	-4305
▁cars	-4306
▁Hill	-4307
▁initially	-4308
▁effective	-4309
atal	-4310
▁Love	-4311
▁rob	-4312
▁associated	-4313
ager	-4314
▁owners	-4315
resp	-4316
▁seeing	-4317
▁Ev	-4318
▁voice	-4319
▁Portug	-4320
▁produce	-4321
▁Ann	-4322
▁Tre	-4323
▁2005	-4324
▁liber	-4325
▁Henry	-4326
▁thinking	-4327
▁Tor	-4328
▁crew	-4329
▁herself	-4330
▁Emp	-4331
▁Jones	-4332
▁rising	-4333
▁Sol	-4334
▁scen	-4335
▁bott	-4336
▁sources	-4337
▁largely	-4338
▁Post	-4339
▁70	-4340
▁Max	-4341
inger	-4342
▁pun	-4343
umn	-4344
▁withd	-4345
▁baby	-4346
no	-4347
▁Sea	-4348
▁victims	-4349
▁powerful	-4350
▁0.	-4351
▁emergency	-4352
orney	-4353
▁hour	-4354
▁cultural	-4355
ias	-4356
▁Out	-4357
ogue	-4358
▁provides	-4359
▁charges	-4360
▁estimated	-4361
▁Bud	-4362
▁broadcast	-4363
antly	-4364
▁ir	-4365
ifying	-4366
▁thr	-4367
▁alleg	-4368
As	-4369
▁Old	-4370
iser	-4371
▁shock	-4372
▁Today	-4373
rect	-4374
lig	-4375
.)	-4376
▁Mont	-4377
pool	-4378
▁flood	-4379
uses	-4380
▁studio	-4381
▁explained	-4382
▁weather	-4383
3)	-4384
▁storm	-4385
▁+	-4386
▁tick	-4387
▁Chel	-4388
add	-4389
▁Phot	-4390
icks	-4391
▁stars	-4392
▁CN	-4393
wa	-4394
▁myself	-4395
clus	-4396
▁funding	-4397
▁calling	-4398
▁Liber	-4399
▁organiz	-4400
▁Research	-4401
▁Public	-4402
ocal	-4403
▁strateg	-4404
▁Big	-4405
ishop	-4406
▁regional	-4407
▁Prot	-4408
▁Ha	-4409
▁markets	-4410
▁trou	-4411
▁details	-4412
▁Camp	-4413
▁ut	-4414
▁Let	-4415
▁becomes	-4416
iable	-4417
▁Dutch	-4418
▁stream	-4419
▁territory	-4420
▁90	-4421
chen	-4422
ON	-4423
▁mechan	-4424
elligence	-4425
▁Following	-4426
▁numerous	-4427
inn	-4428
▁records	-4429
▁1970	-4430
5%	-4431
onic	-4432
gl	-4433
duc	-4434
aked	-4435
▁daily	-4436
▁pros	-4437
▁matches	-4438
▁municip	-4439
▁imag	-4440
▁grew	-4441
▁Pac	-4442
▁opposition	-4443
▁Zeal	-4444
ta	-4445
▁measure	-4446
▁units	-4447
▁obvious	-4448
▁forms	-4449
ibrary	-4450
▁Rev	-4451
▁Fre	-4452
cont	-4453
abeth	-4454
4)	-4455
▁drink	-4456
igration	-4457
▁mental	-4458
▁secret	-4459
1)	-4460
ga	-4461
They	-4462
▁illeg	-4463
▁rapid	-4464
▁Gal	-4465
▁pretty	-4466
▁royal	-4467
▁accident	-4468
▁(18	-4469
▁Wall	-4470
▁teach	-4471
▁Foot	-4472
▁Saint	-4473
▁harm	-4474
▁surface	-4475
▁Poland	-4476
BS	-4477
▁Are	-4478
▁cook	-4479
70	-4480
▁lic	-4481
▁belong	-4482
▁sanctions	-4483
▁Lu	-4484
▁perhaps	-4485
▁Book	-4486
olk	-4487
urance	-4488
▁Labour	-4489
▁categ	-4490
▁assault	-4491
▁Irish	-4492
▁Mill	-4493
▁Good	-4494
▁Games	-4495
▁regions	-4496
▁Som	-4497
▁Zealand	-4498
▁Jewish	-4499
ervation	-4500
▁writer	-4501
▁fifth	-4502
▁unit	-4503
▁Techn	-4504
▁vehicle	-4505
▁weight	-4506
ining	-4507
▁trip	-4508
▁skin	-4509
▁picture	-4510
▁vehicles	-4511
▁Ministry	-4512
▁forest	-4513
▁Donald	-4514
ih	-4515
▁Canadian	-4516
▁facing	-4517
put	-4518
")	-4519
▁dress	-4520
▁declared	-4521
▁western	-4522
▁construct	-4523
▁Amazon	-4524
▁Force	-4525
aith	-4526
▁drop	-4527
▁legislation	-4528
▁heav	-4529
▁referred	-4530
▁governor	-4531
▁Gre	-4532
▁consequ	-4533
met	-4534
▁tim	-4535
▁remark	-4536
▁suit	-4537
▁Tra	-4538
uled	-4539
▁Also	-4540
iverse	-4541
▁fresh	-4542
▁winner	-4543
▁Sar	-4544
▁4.	-4545
▁syn	-4546
iced	-4547
▁pil	-4548
▁judge	-4549
▁planning	-4550
▁eastern	-4551
▁removed	-4552
▁sch	-4553
▁cred	-4554
rieved	-4555
▁smaller	-4556
▁spoke	-4557
▁Premier	-4558
ancing	-4559
▁Jul	-4560
ategy	-4561
▁Az	-4562
▁piece	-4563
▁phil	-4564
▁approximately	-4565
▁defeat	-4566
lad	-4567
▁diss	-4568
olit	-4569
▁eye	-4570
▁Luc	-4571
▁presented	-4572
▁sides	-4573
▁slight	-4574
pri	-4575
ES	-4576
▁Tour	-4577
▁fellow	-4578
ounded	-4579
▁resear	-4580
▁destroyed	-4581
▁strategy	-4582
▁kil	-4583
▁bow	-4584
▁eyes	-4585
▁direction	-4586
▁university	-4587
▁neighbor	-4588
▁analy	-4589
▁Es	-4590
▁refuge	-4591
▁warned	-4592
▁List	-4593
▁Cur	-4594
▁coal	-4595
▁fan	-4596
▁jump	-4597
▁suc	-4598
tery	-4599
▁knowledge	-4600
▁initial	-4601
ounger	-4602
▁Bus	-4603
▁instr	-4604
▁ordered	-4605
▁controvers	-4606
▁diplom	-4607
▁Georgia	-4608
▁2019	-4609
itt	-4610
▁equip	-4611
▁committed	-4612
▁twice	-4613
▁contains	-4614
amm	-4615
▁challenges	-4616
lim	-4617
▁witness	-4618
▁Williams	-4619
▁male	-4620
▁credit	-4621
coming	-4622
prise	-4623
▁Ron	-4624
▁Lake	-4625
▁injured	-4626
rad	-4627
▁Middle	-4628
▁secretary	-4629
▁fine	-4630
writ	-4631
pping	-4632
▁dream	-4633
▁Kar	-4634
▁advant	-4635
▁evening	-4636
▁detect	-4637
▁sequ	-4638
▁providing	-4639
▁Av	-4640
▁conclud	-4641
▁presence	-4642
▁ice	-4643
pre	-4644
▁Nov	-4645
▁funds	-4646
▁champion	-4647
▁struct	-4648
▁affected	-4649
▁identified	-4650
pm	-4651
▁comfort	-4652
▁division	-4653
▁animals	-4654
▁decade	-4655
agement	-4656
essor	-4657
▁tow	-4658
iar	-4659
▁Jo	-4660
▁reflect	-4661
▁posted	-4662
▁Three	-4663
▁certainly	-4664
ewhere	-4665
▁amid	-4666
cul	-4667
HS	-4668
▁cerem	-4669
itutional	-4670
▁Eliz	-4671
▁freedom	-4672
paper	-4673
▁Att	-4674
▁Guard	-4675
ella	-4676
▁Later	-4677
▁Ob	-4678
5)	-4679
fin	-4680
▁holding	-4681
▁covered	-4682
▁Getty	-4683
hy	-4684
▁kick	-4685
▁Lord	-4686
▁jour	-4687
▁answer	-4688
▁bird	-4689
▁dropped	-4690
▁Like	-4691
▁artists	-4692
▁concerned	-4693
▁announce	-4694
▁programme	-4695
▁championship	-4696
▁Dec	-4697
▁missing	-4698
▁showing	-4699
▁Wood	-4700
▁labor	-4701
▁Govern	-4702
▁Lee	-4703
▁hearing	-4704
▁professor	-4705
▁allows	-4706
▁girls	-4707
▁repeated	-4708
▁joint	-4709
▁die	-4710
eless	-4711
11	-4712
▁agricult	-4713
▁Cro	-4714
▁Argent	-4715
▁max	-4716
▁toward	-4717
▁Squ	-4718
▁Bul	-4719
▁comments	-4720
▁Security	-4721
▁Cy	-4722
▁institutions	-4723
▁Wind	-4724
cean	-4725
ext	-4726
▁succeed	-4727
▁Federal	-4728
▁talks	-4729
▁Far	-4730
▁Battle	-4731
inary	-4732
▁Chelsea	-4733
▁Ros	-4734
▁voted	-4735
BA	-4736
▁adopted	-4737
PA	-4738
▁Well	-4739
▁tom	-4740
▁effic	-4741
▁185	-4742
▁creating	-4743
▁difference	-4744
▁Latin	-4745
iano	-4746
▁cash	-4747
▁broke	-4748
▁Charl	-4749
▁types	-4750
▁IS	-4751
▁Kim	-4752
▁Jackson	-4753
▁4,	-4754
▁extremely	-4755
▁housing	-4756
▁losing	-4757
IC	-4758
▁magazine	-4759
▁cold	-4760
▁bag	-4761
▁widely	-4762
▁Boy	-4763
▁Jim	-4764
▁Hung	-4765
▁route	-4766
▁driving	-4767
▁500	-4768
rd	-4769
▁arrang	-4770
▁resist	-4771
▁studied	-4772
▁mand	-4773
▁Chris	-4774
▁Oper	-4775
▁Hel	-4776
▁Rail	-4777
▁decisions	-4778
▁charged	-4779
▁learning	-4780
▁Foreign	-4781
▁Hear	-4782
illing	-4783
▁massive	-4784
▁exchange	-4785
▁industrial	-4786
▁benefits	-4787
action	-4788
▁youth	-4789
▁incred	-4790
▁color	-4791
burgh	-4792
inated	-4793
arters	-4794
▁symb	-4795
▁Add	-4796
▁justice	-4797
▁wealth	-4798
EC	-4799
▁mainly	-4800
▁ath	-4801
▁owned	-4802
▁Film	-4803
ruit	-4804
▁analysis	-4805
▁—	-4806
uate	-4807
▁colon	-4808
▁sched	-4809
▁tells	-4810
war	-4811
▁Why	-4812
▁page	-4813
▁Tai	-4814
▁clearly	-4815
▁register	-4816
▁Tele	-4817
ription	-4818
gian	-4819
▁musical	-4820
▁insp	-4821
rastructure	-4822
▁2004	-4823
where	-4824
hens	-4825
▁throw	-4826
▁cool	-4827
▁pra	-4828
▁protest	-4829
▁Tim	-4830
OR	-4831
▁Festival	-4832
▁apparent	-4833
▁Afghan	-4834
▁Kaz	-4835
▁responsibility	-4836
tered	-4837
stein	-4838
▁Home	-4839
▁prepar	-4840
▁Armen	-4841
wise	-4842
▁spend	-4843
▁Ari	-4844
▁Elect	-4845
8)	-4846
▁programs	-4847
▁defense	-4848
90	-4849
▁equipment	-4850
▁debt	-4851
▁Life	-4852
inent	-4853
▁proposal	-4854
▁pul	-4855
▁Face	-4856
▁nearby	-4857
22	-4858
▁unable	-4859
▁documents	-4860
▁Fam	-4861
▁thank	-4862
iders	-4863
▁plants	-4864
6)	-4865
▁faced	-4866
ican	-4867
▁Before	-4868
ronic	-4869
zen	-4870
▁wait	-4871
▁focused	-4872
▁Director	-4873
▁pregn	-4874
iana	-4875
▁Oh	-4876
iy	-4877
▁square	-4878
▁cyc	-4879
▁pal	-4880
▁Liver	-4881
▁virt	-4882
▁2021,	-4883
inem	-4884
▁refused	-4885
▁exerc	-4886
udi	-4887
▁views	-4888
▁Hy	-4889
onents	-4890
7)	-4891
utely	-4892
roud	-4893
wing	-4894
oted	-4895
▁III	-4896
▁sustain	-4897
▁deaths	-4898
▁Elizabeth	-4899
ennis	-4900
▁clin	-4901
▁Fox	-4902
▁shut	-4903
onom	-4904
oes	-4905
▁assess	-4906
▁reduced	-4907
▁Econom	-4908
▁hundreds	-4909
▁younger	-4910
▁express	-4911
▁candidates	-4912
uan	-4913
▁Who	-4914
▁bound	-4915
▁computer	-4916
▁Ten	-4917
▁exactly	-4918
ansion	-4919
▁variety	-4920
▁van	-4921
▁agree	-4922
▁unique	-4923
▁2010,	-4924
▁audience	-4925
▁Haw	-4926
▁Way	-4927
▁defeated	-4928
▁lose	-4929
igrants	-4930
irt	-4931
▁Bat	-4932
▁operating	-4933
▁gra	-4934
▁consult	-4935
ingu	-4936
rif	-4937
▁Tay	-4938
▁afford	-4939
▁fashion	-4940
▁benefit	-4941
atar	-4942
▁experts	-4943
▁Mass	-4944
▁Holly	-4945
dd	-4946
▁\	-4947
▁hotel	-4948
AF	-4949
ashed	-4950
▁Olympic	-4951
▁perman	-4952
▁smart	-4953
▁2022,	-4954
izes	-4955
▁Empire	-4956
▁Ira	-4957
mine	-4958
ads	-4959
ictures	-4960
▁Anton	-4961
▁Young	-4962
▁leaves	-4963
▁chart	-4964
▁Educ	-4965
▁environmental	-4966
▁developing	-4967
▁Sand	-4968
▁generation	-4969
▁wearing	-4970
▁surpris	-4971
▁Bal	-4972
aped	-4973
▁extended	-4974
▁Sweden	-4975
▁houses	-4976
▁option	-4977
▁rat	-4978
▁5.	-4979
▁owner	-4980
▁dangerous	-4981
▁Sk	-4982
▁wed	-4983
▁elements	-4984
look	-4985
▁Awards	-4986
azz	-4987
▁feels	-4988
▁Four	-4989
▁votes	-4990
BI	-4991
▁teen	-4992
agues	-4993
▁represented	-4994
▁Navy	-4995
▁bought	-4996
▁urg	-4997
▁35	-4998
US	-4999
▁wouldn	-5000
▁millions	-5001
▁Town	-5002
olved	-5003
▁feed	-5004
▁typically	-5005
▁Aff	-5006
▁loved	-5007
▁concern	-5008
▁reportedly	-5009
ighter	-5010
▁mentioned	-5011
oma	-5012
▁Van	-5013
▁Sub	-5014
▁resc	-5015
▁driver	-5016
gram	-5017
▁sale	-5018
Picture	-5019
▁onto	-5020
▁retired	-5021
▁intended	-5022
▁killing	-5023
▁prin	-5024
▁opinion	-5025
▁cells	-5026
▁arms	-5027
▁1960	-5028
45	-5029
know	-5030
erb	-5031
▁corpor	-5032
▁Organ	-5033
▁stopped	-5034
▁Penn	-5035
▁Hot	-5036
▁Liverpool	-5037
▁cy	-5038
▁Nigeria	-5039
▁democracy	-5040
▁controll	-5041
▁proced	-5042
▁Board	-5043
▁Ram	-5044
▁historical	-5045
▁Child	-5046
onn	-5047
equ	-5048
▁finish	-5049
▁beautiful	-5050
▁innov	-5051
eral	-5052
▁Di	-5053
▁occurred	-5054
hire	-5055
▁Develop	-5056
▁Each	-5057
▁send	-5058
▁dyn	-5059
▁truth	-5060
▁virus	-5061
▁presidential	-5062
igan	-5063
▁gar	-5064
▁Gra	-5065
▁CEO	-5066
▁asking	-5067
▁era	-5068
▁importance	-5069
▁incor	-5070
fit	-5071
▁spirit	-5072
▁expert	-5073
▁Apple	-5074
▁rough	-5075
▁spring	-5076
ATO	-5077
▁ongoing	-5078
▁advoc	-5079
▁Step	-5080
eline	-5081
▁actress	-5082
▁raise	-5083
heast	-5084
▁purpose	-5085
▁conducted	-5086
dro	-5087
▁trav	-5088
▁Gen	-5089
cks	-5090
▁increasingly	-5091
▁helping	-5092
▁caught	-5093
▁knows	-5094
▁Us	-5095
▁article	-5096
ishes	-5097
▁split	-5098
▁existing	-5099
▁solution	-5100
▁museum	-5101
respond	-5102
standing	-5103
ima	-5104
▁Rang	-5105
▁Dou	-5106
▁ign	-5107
▁allowing	-5108
▁subs	-5109
▁coin	-5110
▁Os	-5111
▁unl	-5112
▁waiting	-5113
▁contain	-5114
then	-5115
▁Jon	-5116
But	-5117
uct	-5118
▁Turkey	-5119
▁user	-5120
▁captured	-5121
▁coron	-5122
rich	-5123
▁kid	-5124
aks	-5125
phas	-5126
▁cab	-5127
▁easily	-5128
▁6,	-5129
▁Earl	-5130
▁spect	-5131
▁county	-5132
▁Down	-5133
▁Jac	-5134
▁bridge	-5135
nic	-5136
fall	-5137
▁abandon	-5138
mic	-5139
▁expressed	-5140
And	-5141
▁Mah	-5142
▁items	-5143
ette	-5144
▁Iraq	-5145
▁circum	-5146
ienced	-5147
▁admitted	-5148
▁holiday	-5149
▁delay	-5150
▁seats	-5151
▁prepared	-5152
▁boss	-5153
▁motor	-5154
gu	-5155
▁restrictions	-5156
▁Vlad	-5157
▁Bost	-5158
▁learned	-5159
▁camera	-5160
▁aspect	-5161
▁impl	-5162
▁standards	-5163
▁Prov	-5164
icine	-5165
▁doctor	-5166
▁pull	-5167
▁options	-5168
uting	-5169
▁infrastructure	-5170
FL	-5171
▁eat	-5172
▁Science	-5173
▁Bow	-5174
▁ideas	-5175
▁basic	-5176
▁hero	-5177
▁Images	-5178
▁dial	-5179
▁Polish	-5180
▁telling	-5181
▁Nic	-5182
▁Duke	-5183
▁limit	-5184
▁strength	-5185
▁edition	-5186
▁latter	-5187
▁scale	-5188
▁journey	-5189
▁Lew	-5190
▁Football	-5191
iro	-5192
▁concent	-5193
▁opportunities	-5194
▁Market	-5195
▁Only	-5196
▁bodies	-5197
▁serving	-5198
▁ton	-5199
▁Musk	-5200
▁independence	-5201
itely	-5202
▁models	-5203
▁Eastern	-5204
▁testing	-5205
▁relatively	-5206
▁shares	-5207
▁Pan	-5208
▁seeking	-5209
▁officially	-5210
▁wonder	-5211
15	-5212
▁Bas	-5213
atever	-5214
life	-5215
▁solid	-5216
▁accepted	-5217
▁proceed	-5218
▁prefer	-5219
fficient	-5220
▁(201	-5221
makers	-5222
▁univers	-5223
vant	-5224
rier	-5225
rim	-5226
▁Human	-5227
ja	-5228
▁acting	-5229
OP	-5230
imir	-5231
▁Those	-5232
▁newspaper	-5233
▁traffic	-5234
▁ancient	-5235
ruption	-5236
▁Records	-5237
▁wish	-5238
What	-5239
ograp	-5240
▁confidence	-5241
▁Turk	-5242
othing	-5243
▁flat	-5244
▁2008,	-5245
▁earth	-5246
▁worst	-5247
▁fish	-5248
▁governments	-5249
▁Rome	-5250
▁Ell	-5251
engers	-5252
▁Mot	-5253
▁Tal	-5254
▁6.	-5255
ira	-5256
▁drama	-5257
enth	-5258
igg	-5259
▁Rel	-5260
▁connection	-5261
▁occasion	-5262
▁vul	-5263
▁Long	-5264
oured	-5265
▁bid	-5266
aming	-5267
▁task	-5268
▁FI	-5269
▁2015,	-5270
▁Ul	-5271
ulate	-5272
▁2014,	-5273
▁abuse	-5274
▁putting	-5275
▁interests	-5276
▁assum	-5277
▁editor	-5278
▁failure	-5279
▁defence	-5280
▁internal	-5281
GB	-5282
▁Daniel	-5283
▁lov	-5284
▁severe	-5285
ederation	-5286
▁Southern	-5287
elly	-5288
That	-5289
tainment	-5290
▁2011,	-5291
▁machine	-5292
AM	-5293
▁Boston	-5294
▁renew	-5295
▁Wal	-5296
▁Retrieved	-5297
▁(199	-5298
▁Official	-5299
rac	-5300
▁5,	-5301
▁NATO	-5302
acks	-5303
long	-5304
▁dedicated	-5305
▁advantage	-5306
▁System	-5307
iny	-5308
▁Fort	-5309
▁starts	-5310
▁positions	-5311
▁Foundation	-5312
▁producer	-5313
▁Civil	-5314
▁Berlin	-5315
▁Ken	-5316
itarian	-5317
ras	-5318
▁Assembly	-5319
▁2003	-5320
▁values	-5321
▁flow	-5322
ittle	-5323
▁2022.	-5324
verse	-5325
▁ships	-5326
▁pattern	-5327
▁negative	-5328
▁images	-5329
alty	-5330
▁teacher	-5331
▁schol	-5332
orders	-5333
▁code	-5334
▁Work	-5335
osoph	-5336
▁master	-5337
ensions	-5338
▁supporting	-5339
ef	-5340
▁Palest	-5341
▁compos	-5342
▁Tik	-5343
▁facilities	-5344
agon	-5345
peror	-5346
▁Governor	-5347
▁2020,	-5348
▁Fred	-5349
▁Instead	-5350
▁begins	-5351
▁emp	-5352
▁Sever	-5353
▁materials	-5354
▁trend	-5355
▁enforce	-5356
icit	-5357
▁steps	-5358
igen	-5359
▁dance	-5360
aine	-5361
▁mort	-5362
▁fram	-5363
ao	-5364
▁Olympics	-5365
▁nations	-5366
▁standing	-5367
▁2009,	-5368
▁retire	-5369
▁Boris	-5370
▁Virginia	-5371
▁vaccine	-5372
▁retail	-5373
mir	-5374
▁approved	-5375
▁rein	-5376
▁Sky	-5377
▁magn	-5378
▁acknow	-5379
▁Joseph	-5380
▁tend	-5381
▁listed	-5382
▁earned	-5383
▁stress	-5384
▁stuff	-5385
▁glass	-5386
▁setting	-5387
▁2012,	-5388
▁184	-5389
▁tack	-5390
▁guitar	-5391
▁captain	-5392
▁supporters	-5393
▁guarant	-5394
▁Pacific	-5395
▁sought	-5396
▁authority	-5397
▁Time	-5398
▁(3	-5399
▁earn	-5400
▁denied	-5401
▁Top	-5402
anging	-5403
▁identity	-5404
under	-5405
▁offering	-5406
rep	-5407
▁kilomet	-5408
▁photo	-5409
phy	-5410
▁write	-5411
▁Zel	-5412
ologist	-5413
enger	-5414
apers	-5415
ocol	-5416
▁termin	-5417
▁Nether	-5418
onent	-5419
▁Mu	-5420
irus	-5421
▁software	-5422
ova	-5423
▁Tri	-5424
▁seemed	-5425
▁warm	-5426
▁Int	-5427
▁advance	-5428
▁Prin	-5429
▁speaking	-5430
sex	-5431
▁chap	-5432
oration	-5433
▁Class	-5434
▁determined	-5435
mond	-5436
EN	-5437
▁airport	-5438
▁Swedish	-5439
▁experienced	-5440
works	-5441
▁dry	-5442
▁voting	-5443
da	-5444
▁Centre	-5445
▁emphas	-5446
▁Truss	-5447
▁carbon	-5448
▁ultimately	-5449
▁overs	-5450
▁distance	-5451
75	-5452
▁Bob	-5453
▁lies	-5454
awa	-5455
▁CD	-5456
▁watching	-5457
▁armed	-5458
▁Rod	-5459
OS	-5460
mann	-5461
▁cert	-5462
▁scientific	-5463
▁Dub	-5464
▁animal	-5465
encing	-5466
▁powers	-5467
▁accounts	-5468
▁Taylor	-5469
▁scheduled	-5470
▁corner	-5471
▁Gi	-5472
▁Asian	-5473
▁apart	-5474
▁slightly	-5475
▁Game	-5476
mes	-5477
ception	-5478
▁2016,	-5479
▁seasons	-5480
ED	-5481
▁Ash	-5482
▁Dev	-5483
▁deploy	-5484
▁shel	-5485
▁Real	-5486
senal	-5487
esterday	-5488
▁Francisco	-5489
▁correspond	-5490
▁ce	-5491
chest	-5492
▁2007,	-5493
▁Cle	-5494
▁Education	-5495
▁din	-5496
▁supposed	-5497
▁Once	-5498
▁believes	-5499
▁memory	-5500
▁choose	-5501
▁divided	-5502
▁tree	-5503
▁feat	-5504
▁Fe	-5505
▁secure	-5506
▁Land	-5507
▁primarily	-5508
▁conver	-5509
▁minute	-5510
▁diagn	-5511
▁languages	-5512
▁equal	-5513
can	-5514
CA	-5515
▁Test	-5516
▁underst	-5517
▁clubs	-5518
stan	-5519
▁Mike	-5520
▁bul	-5521
▁poet	-5522
▁banks	-5523
▁worse	-5524
▁cas	-5525
▁Gall	-5526
▁maybe	-5527
▁Facebook	-5528
▁Walk	-5529
▁Show	-5530
▁investors	-5531
care	-5532
▁Ba	-5533
▁native	-5534
▁expand	-5535
run	-5536
▁32	-5537
▁granted	-5538
▁vulner	-5539
▁loan	-5540
han	-5541
▁Netherlands	-5542
arp	-5543
▁survey	-5544
▁vac	-5545
eler	-5546
▁rose	-5547
gment	-5548
ucky	-5549
▁2013,	-5550
▁depend	-5551
▁Alexander	-5552
▁application	-5553
An	-5554
▁broken	-5555
iat	-5556
▁illegal	-5557
ogle	-5558
▁intelligence	-5559
uters	-5560
do	-5561
▁missed	-5562
▁canc	-5563
▁mountain	-5564
▁finding	-5565
▁planet	-5566
▁Arts	-5567
▁Korean	-5568
nam	-5569
▁Kyiv	-5570
▁tests	-5571
aka	-5572
imal	-5573
ker	-5574
▁railway	-5575
▁Card	-5576
azing	-5577
▁isol	-5578
▁Journal	-5579
▁spokesperson	-5580
▁achieved	-5581
▁kit	-5582
▁bringing	-5583
▁BC	-5584
▁note	-5585
▁AP	-5586
▁background	-5587
▁advert	-5588
▁combined	-5589
▁province	-5590
▁Ly	-5591
▁Among	-5592
bury	-5593
▁cooperation	-5594
▁2002	-5595
▁correct	-5596
12	-5597
isf	-5598
My	-5599
▁entirely	-5600
▁coff	-5601
▁reading	-5602
▁Taiwan	-5603
unte	-5604
▁Vladimir	-5605
▁2001	-5606
▁balance	-5607
▁ruling	-5608
▁haven	-5609
▁tough	-5610
turn	-5611
▁follows	-5612
▁semi	-5613
▁row	-5614
▁Power	-5615
-4	-5616
▁mut	-5617
▁Valley	-5618
ologies	-5619
rig	-5620
▁ast	-5621
▁Rh	-5622
esc	-5623
▁Bol	-5624
ba	-5625
Tok	-5626
▁Capit	-5627
35	-5628
kins	-5629
▁factors	-5630
▁sympt	-5631
▁Dar	-5632
dden	-5633
▁aren	-5634
▁transform	-5635
▁email	-5636
▁rich	-5637
▁appropri	-5638
▁PM	-5639
▁2017,	-5640
▁doubt	-5641
▁wave	-5642
▁hun	-5643
▁Water	-5644
▁crypt	-5645
▁bills	-5646
▁alternative	-5647
raud	-5648
▁accomp	-5649
▁label	-5650
▁estate	-5651
▁shape	-5652
otic	-5653
▁CNN	-5654
▁visited	-5655
DP	-5656
▁catch	-5657
ricket	-5658
▁Sus	-5659
coh	-5660
▁understanding	-5661
▁channel	-5662
▁acad	-5663
▁attacked	-5664
▁injuries	-5665
ipe	-5666
▁attempts	-5667
othes	-5668
▁honor	-5669
uous	-5670
itzer	-5671
osen	-5672
▁Independ	-5673
▁ven	-5674
▁partnership	-5675
▁Jean	-5676
▁Series	-5677
spe	-5678
ersey	-5679
ket	-5680
▁Gh	-5681
▁Radio	-5682
▁faces	-5683
▁happens	-5684
teen	-5685
▁Team	-5686
▁Seattle	-5687
▁keeping	-5688
▁combat	-5689
▁sitting	-5690
▁bond	-5691
place	-5692
▁Development	-5693
ali	-5694
▁bottom	-5695
▁sites	-5696
▁greatest	-5697
▁2018,	-5698
▁organizations	-5699
class	-5700
▁proud	-5701
▁shop	-5702
iner	-5703
▁Det	-5704
amber	-5705
▁Men	-5706
▁Run	-5707
opping	-5708
▁45	-5709
alls	-5710
▁sets	-5711
%.	-5712
▁$2	-5713
9)	-5714
▁inspired	-5715
▁goods	-5716
▁pieces	-5717
▁aged	-5718
▁medal	-5719
▁roles	-5720
▁Sports	-5721
riff	-5722
▁nor	-5723
▁willing	-5724
noon	-5725
▁contem	-5726
point	-5727
▁signs	-5728
▁Khan	-5729
▁Mem	-5730
▁Kong	-5731
▁sudden	-5732
',	-5733
CO	-5734
When	-5735
tic	-5736
^{	-5737
ilty	-5738
▁nob	-5739
▁Mic	-5740
▁subsequently	-5741
osis	-5742
Ar	-5743
▁Est	-5744
▁Ak	-5745
oz	-5746
▁stands	-5747
▁suggests	-5748
AD	-5749
▁pitch	-5750
▁faith	-5751
▁ceremony	-5752
▁guard	-5753
▁stations	-5754
▁Naz	-5755
▁gained	-5756
▁causing	-5757
▁wins	-5758
lines	-5759
▁forecast	-5760
▁gender	-5761
urd	-5762
▁knock	-5763
▁creation	-5764
▁vs	-5765
pport	-5766
alle	-5767
▁circumst	-5768
▁returning	-5769
▁selected	-5770
ader	-5771
▁300	-5772
pective	-5773
▁Fire	-5774
▁applied	-5775
itors	-5776
ez	-5777
▁recording	-5778
▁interested	-5779
▁Stan	-5780
▁victim	-5781
▁metal	-5782
▁Brook	-5783
▁Palace	-5784
▁advice	-5785
▁Bern	-5786
▁Pen	-5787
▁chain	-5788
▁ends	-5789
▁prote	-5790
▁appoint	-5791
▁Space	-5792
▁researchers	-5793
▁linked	-5794
▁streets	-5795
▁attempted	-5796
▁Kenn	-5797
asters	-5798
▁closely	-5799
▁regarding	-5800
ora	-5801
▁Ven	-5802
▁Jeff	-5803
▁tight	-5804
▁Ap	-5805
▁Mrs	-5806
▁paint	-5807
▁About	-5808
erves	-5809
ijing	-5810
▁Hong	-5811
▁Carolina	-5812
▁fundament	-5813
▁connected	-5814
FC	-5815
▁warning	-5816
▁Ra	-5817
onym	-5818
▁Israeli	-5819
▁Wild	-5820
ivery	-5821
▁fired	-5822
▁festival	-5823
▁advanced	-5824
▁compar	-5825
▁dismiss	-5826
▁temperature	-5827
▁argued	-5828
-20	-5829
ario	-5830
▁passengers	-5831
▁2006,	-5832
▁trees	-5833
▁marked	-5834
▁crash	-5835
inder	-5836
IT	-5837
▁shall	-5838
▁Stadium	-5839
▁happening	-5840
▁ec	-5841
▁holds	-5842
▁suffering	-5843
▁Kn	-5844
▁surrounding	-5845
▁Treat	-5846
▁constit	-5847
using	-5848
▁involve	-5849
▁belief	-5850
▁TikTok	-5851
▁Ill	-5852
Ph	-5853
▁tracks	-5854
▁Yet	-5855
▁struck	-5856
quarters	-5857
bro	-5858
▁expensive	-5859
issions	-5860
▁crimes	-5861
▁snow	-5862
▁explos	-5863
▁Community	-5864
▁Hollywood	-5865
▁appeal	-5866
ocratic	-5867
▁fer	-5868
▁recommend	-5869
▁drugs	-5870
▁absolutely	-5871
▁settlement	-5872
▁Your	-5873
▁resolution	-5874
▁thanks	-5875
li	-5876
ench	-5877
outs	-5878
▁Wat	-5879
▁Bi	-5880
▁founder	-5881
rical	-5882
▁historic	-5883
▁jail	-5884
▁Google	-5885
▁Cross	-5886
rance	-5887
alse	-5888
▁treated	-5889
idel	-5890
▁Business	-5891
IV	-5892
▁10,	-5893
▁photos	-5894
▁filed	-5895
ortunately	-5896
otten	-5897
▁yourself	-5898
▁Fund	-5899
▁skills	-5900
▁7.	-5901
icide	-5902
▁Serb	-5903
▁pit	-5904
▁Disney	-5905
▁gather	-5906
▁seconds	-5907
▁causes	-5908
▁prompt	-5909
▁requires	-5910
gery	-5911
▁Marc	-5912
▁lie	-5913
▁scheme	-5914
▁draft	-5915
▁Beijing	-5916
▁dollars	-5917
▁behavior	-5918
▁rom	-5919
▁flu	-5920
▁window	-5921
bridge	-5922
▁behavi	-5923
▁restaurant	-5924
▁worldwide	-5925
isher	-5926
▁prominent	-5927
umber	-5928
▁apply	-5929
▁ic	-5930
▁incorpor	-5931
▁transition	-5932
▁Jes	-5933
▁Rog	-5934
▁Commissioner	-5935
▁Eth	-5936
▁Tok	-5937
bu	-5938
▁contrast	-5939
▁delivered	-5940
▁afternoon	-5941
iate	-5942
avirus	-5943
▁inhab	-5944
She	-5945
ossible	-5946
▁ruled	-5947
idency	-5948
▁Conf	-5949
orage	-5950
rees	-5951
▁Hor	-5952
certain	-5953
atically	-5954
▁36	-5955
▁7,	-5956
▁Bh	-5957
pet	-5958
▁Syd	-5959
▁von	-5960
▁Mir	-5961
ulations	-5962
▁facility	-5963
aya	-5964
onia	-5965
▁Invest	-5966
▁Plan	-5967
▁protests	-5968
▁ring	-5969
▁shortly	-5970
▁resulted	-5971
▁reaction	-5972
▁selling	-5973
apped	-5974
▁stret	-5975
▁penalty	-5976
▁receiving	-5977
▁End	-5978
▁Coast	-5979
▁gain	-5980
ipping	-5981
ayer	-5982
▁metres	-5983
▁Ca	-5984
▁Broad	-5985
related	-5986
▁assistance	-5987
▁monitor	-5988
▁actual	-5989
itage	-5990
▁Lewis	-5991
▁consists	-5992
▁Common	-5993
▁micro	-5994
ework	-5995
▁decide	-5996
▁reference	-5997
▁Exp	-5998
▁changing	-5999
▁athlet	-6000
▁2021.	-6001
▁matters	-6002
▁Blue	-6003
▁Indust	-6004
▁allies	-6005
▁exclus	-6006
▁guilty	-6007
▁2012.	-6008
rics	-6009
▁Affairs	-6010
▁Conference	-6011
▁chemical	-6012
▁vess	-6013
uls	-6014
icate	-6015
▁notes	-6016
▁Saudi	-6017
▁2010.	-6018
▁180	-6019
▁Major	-6020
▁Arsenal	-6021
▁Hon	-6022
▁revenue	-6023
PR	-6024
perial	-6025
▁sad	-6026
▁commitment	-6027
▁Anth	-6028
▁Back	-6029
▁Bra	-6030
▁Clark	-6031
▁Airport	-6032
▁183	-6033
cle	-6034
▁Philipp	-6035
▁Song	-6036
▁Several	-6037
▁session	-6038
ternal	-6039
▁plane	-6040
vin	-6041
▁swim	-6042
▁technical	-6043
▁Afghanistan	-6044
▁contributed	-6045
▁unknown	-6046
▁leads	-6047
▁lawyer	-6048
ection	-6049
▁Moh	-6050
▁significantly	-6051
▁Pa	-6052
▁Report	-6053
▁Columb	-6054
▁welcome	-6055
▁marg	-6056
▁Global	-6057
▁colleagues	-6058
star	-6059
26	-6060
hered	-6061
▁Histor	-6062
▁rejected	-6063
▁garden	-6064
rency	-6065
▁element	-6066
▁chairman	-6067
ilding	-6068
asks	-6069
with	-6070
real	-6071
▁wedding	-6072
onna	-6073
rum	-6074
▁Kent	-6075
▁Capitol	-6076
ati	-6077
▁composed	-6078
▁resign	-6079
▁strengthen	-6080
ancell	-6081
▁Through	-6082
Americ	-6083
▁2014.	-6084
▁resulting	-6085
illy	-6086
▁taught	-6087
▁escape	-6088
stone	-6089
▁electricity	-6090
▁newly	-6091
oir	-6092
hess	-6093
▁Cult	-6094
▁2015.	-6095
▁fought	-6096
▁1950	-6097
itled	-6098
▁stood	-6099
▁overse	-6100
▁heavily	-6101
phone	-6102
ylvan	-6103
▁responded	-6104
▁titles	-6105
▁Zelens	-6106
AL	-6107
athan	-6108
unction	-6109
▁frequently	-6110
oto	-6111
▁context	-6112
▁Ox	-6113
▁Sydney	-6114
weight	-6115
▁Enter	-6116
▁organis	-6117
ww	-6118
asy	-6119
mun	-6120
▁edge	-6121
▁proved	-6122
▁sac	-6123
lets	-6124
ji	-6125
pass	-6126
▁circumstances	-6127
▁zone	-6128
sey	-6129
ión	-6130
▁Die	-6131
▁Night	-6132
▁Ryan	-6133
▁Media	-6134
▁upper	-6135
▁Nick	-6136
▁aw	-6137
▁Raj	-6138
▁Rem	-6139
▁trading	-6140
▁permanent	-6141
▁Ariz	-6142
▁regime	-6143
▁complic	-6144
inson	-6145
▁Adam	-6146
▁fat	-6147
▁urban	-6148
▁tweeted	-6149
▁declined	-6150
▁fly	-6151
rog	-6152
▁sand	-6153
▁Cop	-6154
▁immediate	-6155
▁Special	-6156
▁Ep	-6157
math	-6158
▁vent	-6159
▁33	-6160
▁weak	-6161
▁Stat	-6162
▁operated	-6163
▁acquired	-6164
unior	-6165
▁Hun	-6166
▁Abb	-6167
▁Bang	-6168
▁Matt	-6169
▁hopes	-6170
▁consumers	-6171
▁veter	-6172
usted	-6173
▁carrying	-6174
irty	-6175
▁assistant	-6176
▁core	-6177
▁8,	-6178
-5	-6179
▁Ott	-6180
▁remov	-6181
ela	-6182
▁Six	-6183
▁Champions	-6184
▁Ray	-6185
▁pod	-6186
water	-6187
▁Head	-6188
▁closer	-6189
▁negotiations	-6190
▁narrow	-6191
▁entry	-6192
▁Conservative	-6193
▁plus	-6194
▁symptoms	-6195
▁supplies	-6196
▁Polit	-6197
▁Agency	-6198
▁maximum	-6199
▁Former	-6200
Don	-6201
hat	-6202
▁15,	-6203
eur	-6204
▁distinct	-6205
▁ending	-6206
▁USA	-6207
▁criticism	-6208
▁elev	-6209
▁respectively	-6210
▁duty	-6211
▁colour	-6212
▁yesterday	-6213
oom	-6214
▁2011.	-6215
▁Form	-6216
▁whatever	-6217
PD	-6218
▁breat	-6219
▁Rights	-6220
MS	-6221
▁MO	-6222
▁egg	-6223
▁Princess	-6224
▁attorney	-6225
cript	-6226
▁chosen	-6227
▁Jord	-6228
▁Summer	-6229
▁alcoh	-6230
▁Professor	-6231
▁notice	-6232
▁finds	-6233
shire	-6234
▁possibly	-6235
▁opposed	-6236
▁episodes	-6237
▁shell	-6238
▁Qatar	-6239
▁silver	-6240
▁Steve	-6241
▁defined	-6242
ilton	-6243
New	-6244
▁condem	-6245
acement	-6246
▁improved	-6247
enda	-6248
▁promote	-6249
▁rival	-6250
uten	-6251
▁Edward	-6252
▁Author	-6253
raged	-6254
acked	-6255
▁11,	-6256
▁Though	-6257
mosp	-6258
▁substant	-6259
▁NHS	-6260
▁passing	-6261
▁mixed	-6262
overty	-6263
▁highlight	-6264
▁helps	-6265
▁Project	-6266
▁Hospital	-6267
▁Order	-6268
▁promoted	-6269
zech	-6270
▁Wilson	-6271
▁Further	-6272
▁orders	-6273
▁1999	-6274
▁stadium	-6275
▁Kat	-6276
▁Tem	-6277
ugby	-6278
itable	-6279
▁Channel	-6280
▁Cat	-6281
▁humans	-6282
▁height	-6283
anna	-6284
▁graph	-6285
▁sevent	-6286
▁device	-6287
▁acts	-6288
cious	-6289
▁yards	-6290
▁alt	-6291
▁Revolution	-6292
bec	-6293
▁allegations	-6294
dy	-6295
▁comedy	-6296
lav	-6297
iversary	-6298
▁agent	-6299
▁Pop	-6300
▁patient	-6301
LA	-6302
▁Viet	-6303
▁elimin	-6304
▁scenes	-6305
▁vice	-6306
▁teachers	-6307
▁enforcement	-6308
▁adults	-6309
án	-6310
▁rural	-6311
ylvania	-6312
▁Stand	-6313
▁moments	-6314
▁Little	-6315
uma	-6316
▁phase	-6317
uts	-6318
▁amazing	-6319
▁distribution	-6320
▁recovery	-6321
▁politician	-6322
▁definitely	-6323
▁Arizona	-6324
resents	-6325
org	-6326
▁stone	-6327
uties	-6328
▁journalist	-6329
▁walking	-6330
▁spark	-6331
▁ment	-6332
IA	-6333
▁Argentina	-6334
▁Corpor	-6335
▁Kazakh	-6336
▁Coll	-6337
▁vision	-6338
▁otherwise	-6339
called	-6340
▁pool	-6341
col	-6342
▁returns	-6343
▁Stephen	-6344
▁Any	-6345
▁vast	-6346
▁turning	-6347
▁households	-6348
▁basket	-6349
rapy	-6350
▁turns	-6351
▁emotional	-6352
▁boys	-6353
▁Ok	-6354
▁Corn	-6355
21	-6356
▁assets	-6357
enses	-6358
▁conversation	-6359
▁possibility	-6360
Al	-6361
una	-6362
▁2020.	-6363
▁da	-6364
CC	-6365
▁cart	-6366
▁Jr	-6367
▁fraud	-6368
▁sixth	-6369
▁painting	-6370
▁conservative	-6371
▁2009.	-6372
▁consumer	-6373
▁transferred	-6374
▁Victoria	-6375
▁Bell	-6376
▁devices	-6377
▁Glas	-6378
▁select	-6379
zy	-6380
asty	-6381
bn	-6382
▁expansion	-6383
▁extreme	-6384
▁150	-6385
▁yellow	-6386
▁Lis	-6387
▁2008.	-6388
ockey	-6389
▁statements	-6390
etime	-6391
▁Family	-6392
yo	-6393
iti	-6394
▁quant	-6395
▁withdraw	-6396
utors	-6397
▁obtained	-6398
▁relief	-6399
▁coronavirus	-6400
rin	-6401
▁participated	-6402
osite	-6403
▁behalf	-6404
▁Internet	-6405
flix	-6406
▁Lind	-6407
▁videos	-6408
▁risks	-6409
▁2013.	-6410
▁recognized	-6411
▁bra	-6412
aints	-6413
▁engaged	-6414
inburgh	-6415
▁hall	-6416
▁increases	-6417
▁scoring	-6418
▁delivery	-6419
▁giant	-6420
▁Ah	-6421
▁insurance	-6422
box	-6423
▁roughly	-6424
▁Cru	-6425
adow	-6426
▁instance	-6427
▁guys	-6428
▁scientists	-6429
▁represents	-6430
▁protected	-6431
▁Rangers	-6432
itals	-6433
▁Energy	-6434
▁commonly	-6435
▁stick	-6436
oked	-6437
▁god	-6438
▁Inf	-6439
ographic	-6440
▁Liz	-6441
▁celeb	-6442
▁birthday	-6443
▁solutions	-6444
gow	-6445
ether	-6446
▁Rom	-6447
▁volunte	-6448
▁Mun	-6449
▁2005,	-6450
▁solo	-6451
▁Ins	-6452
▁mask	-6453
▁nice	-6454
▁struggling	-6455
▁horse	-6456
Sh	-6457
▁formal	-6458
▁pushed	-6459
▁paying	-6460
▁fant	-6461
▁excell	-6462
ping	-6463
▁Cub	-6464
▁regularly	-6465
▁pictures	-6466
▁consequences	-6467
▁Wars	-6468
▁12,	-6469
▁allegedly	-6470
▁Turkish	-6471
▁Dun	-6472
▁zero	-6473
▁honest	-6474
18	-6475
▁Cab	-6476
▁purchase	-6477
aire	-6478
uster	-6479
▁vulnerable	-6480
▁guy	-6481
▁Maria	-6482
No	-6483
rant	-6484
▁methods	-6485
nce	-6486
adel	-6487
▁laid	-6488
▁bot	-6489
▁Pers	-6490
▁Live	-6491
ulpt	-6492
abled	-6493
▁theme	-6494
▁adopt	-6495
ancellor	-6496
▁hur	-6497
gers	-6498
▁organized	-6499
▁Represent	-6500
▁concert	-6501
lers	-6502
▁Ast	-6503
▁1998	-6504
▁concluded	-6505
▁Arm	-6506
▁ox	-6507
▁frust	-6508
▁effectively	-6509
▁potentially	-6510
▁crucial	-6511
▁pointed	-6512
▁Edinburgh	-6513
▁grown	-6514
▁Rs	-6515
law	-6516
▁Girl	-6517
▁cha	-6518
po	-6519
td	-6520
▁performances	-6521
▁@	-6522
▁Islands	-6523
▁reign	-6524
DA	-6525
▁remove	-6526
essed	-6527
▁impress	-6528
▁Kir	-6529
▁(198	-6530
▁featuring	-6531
▁replace	-6532
▁teaching	-6533
▁interesting	-6534
ighters	-6535
▁struggle	-6536
sk	-6537
▁Championships	-6538
▁communication	-6539
▁Capt	-6540
▁sav	-6541
hibit	-6542
▁drivers	-6543
aga	-6544
ooth	-6545
▁amend	-6546
▁Dam	-6547
▁$3	-6548
16	-6549
▁10.	-6550
▁rot	-6551
▁shift	-6552
▁flights	-6553
ila	-6554
▁Czech	-6555
▁Labor	-6556
▁batt	-6557
▁urged	-6558
▁forg	-6559
▁false	-6560
▁decre	-6561
▁expanded	-6562
▁easier	-6563
▁resistance	-6564
▁hydro	-6565
▁mor	-6566
▁instruct	-6567
acter	-6568
▁Santa	-6569
rence	-6570
▁gall	-6571
▁mobile	-6572
▁worry	-6573
heim	-6574
▁seriously	-6575
▁Program	-6576
uer	-6577
▁9,	-6578
▁properties	-6579
iform	-6580
▁illness	-6581
78	-6582
eman	-6583
▁Muslim	-6584
bar	-6585
▁16,	-6586
▁vari	-6587
▁documentary	-6588
▁instrument	-6589
▁consec	-6590
▁specifically	-6591
iary	-6592
rane	-6593
▁oldest	-6594
▁experiences	-6595
ione	-6596
▁Free	-6597
hemat	-6598
▁ru	-6599
▁Kl	-6600
▁publicly	-6601
▁Sunak	-6602
▁Indones	-6603
▁Lo	-6604
23	-6605
▁Chair	-6606
{\	-6607
▁politicians	-6608
▁determine	-6609
itzerland	-6610
▁Administ	-6611
▁Delhi	-6612
bi	-6613
▁bright	-6614
▁deals	-6615
▁14,	-6616
▁decline	-6617
▁wine	-6618
▁8.	-6619
enna	-6620
▁peak	-6621
▁Tory	-6622
▁surprise	-6623
▁Norway	-6624
osure	-6625
▁acknowled	-6626
▁appearances	-6627
inian	-6628
▁profession	-6629
▁Greece	-6630
idden	-6631
▁Jordan	-6632
▁applications	-6633
▁factor	-6634
▁mayor	-6635
▁waste	-6636
▁storage	-6637
PS	-6638
▁1920	-6639
▁2016.	-6640
▁Line	-6641
▁Bru	-6642
▁accur	-6643
▁−	-6644
▁emerged	-6645
▁employment	-6646
▁settled	-6647
▁Speaking	-6648
▁messages	-6649
▁monarch	-6650
▁legend	-6651
iques	-6652
▁classes	-6653
▁falling	-6654
break	-6655
utor	-6656
▁sick	-6657
▁ethnic	-6658
▁tested	-6659
▁walls	-6660
▁healthy	-6661
▁atmosp	-6662
een	-6663
town	-6664
▁Penns	-6665
▁bigger	-6666
▁impossible	-6667
utation	-6668
▁neighbour	-6669
▁uncertain	-6670
▁hits	-6671
▁30,	-6672
-6	-6673
ensity	-6674
▁34	-6675
ansas	-6676
▁occupied	-6677
▁Jam	-6678
▁census	-6679
▁enh	-6680
▁apprec	-6681
ighth	-6682
▁Netflix	-6683
13	-6684
▁continuing	-6685
▁Prize	-6686
▁drawn	-6687
▁losses	-6688
▁agg	-6689
▁Da	-6690
fe	-6691
▁Ur	-6692
car	-6693
itants	-6694
,000.	-6695
quir	-6696
▁reaching	-6697
▁revolution	-6698
▁Tit	-6699
▁announcement	-6700
oty	-6701
evin	-6702
▁registered	-6703
▁neighborhood	-6704
antry	-6705
▁(4	-6706
▁spons	-6707
▁Gab	-6708
▁awards	-6709
▁requirements	-6710
▁emissions	-6711
▁2018.	-6712
iveness	-6713
▁sees	-6714
▁internet	-6715
▁Islamic	-6716
▁agencies	-6717
So	-6718
▁temperatures	-6719
▁visitors	-6720
▁ly	-6721
▁Glasgow	-6722
▁Zelensky	-6723
▁dies	-6724
oles	-6725
14	-6726
▁plot	-6727
▁Theatre	-6728
▁Switzerland	-6729
▁wing	-6730
▁trail	-6731
▁interact	-6732
▁invited	-6733
▁Pel	-6734
▁surgery	-6735
▁Ross	-6736
27	-6737
▁Vill	-6738
▁illust	-6739
▁2007.	-6740
▁Lady	-6741
▁18,	-6742
▁minimum	-6743
▁philosoph	-6744
▁viewers	-6745
alling	-6746
assador	-6747
free	-6748
▁damaged	-6749
bourne	-6750
24	-6751
▁Ker	-6752
▁cuts	-6753
▁tur	-6754
▁pulled	-6755
▁Pennsylvania	-6756
rell	-6757
▁400	-6758
▁2017.	-6759
vals	-6760
▁lockdown	-6761
▁bear	-6762
▁Madrid	-6763
▁deputy	-6764
▁devast	-6765
▁refugees	-6766
▁drum	-6767
▁notable	-6768
▁constructed	-6769
urer	-6770
▁subsid	-6771
ca	-6772
▁quiet	-6773
▁stores	-6774
ng	-6775
▁brothers	-6776
obe	-6777
▁surge	-6778
▁sentence	-6779
▁Key	-6780
▁explain	-6781
▁Ever	-6782
▁enemy	-6783
▁footage	-6784
▁weapon	-6785
▁critics	-6786
▁banned	-6787
▁Whe	-6788
▁guns	-6789
cho	-6790
▁Michigan	-6791
SP	-6792
▁serves	-6793
vere	-6794
anta	-6795
▁branch	-6796
▁Jews	-6797
▁motion	-6798
▁recognition	-6799
oming	-6800
ache	-6801
▁letters	-6802
▁prove	-6803
▁Bir	-6804
▁habit	-6805
▁2019,	-6806
▁20,	-6807
▁poverty	-6808
▁tun	-6809
▁Micro	-6810
▁buried	-6811
▁attrib	-6812
ye	-6813
▁spoken	-6814
▁Week	-6815
▁appropriate	-6816
▁cycle	-6817
▁Color	-6818
▁McG	-6819
RA	-6820
▁association	-6821
▁ft	-6822
eper	-6823
▁ministers	-6824
▁fir	-6825
▁threats	-6826
sts	-6827
▁13,	-6828
▁hasn	-6829
▁Atlantic	-6830
▁compete	-6831
For	-6832
▁occas	-6833
▁hyp	-6834
▁Where	-6835
▁oblig	-6836
▁Li	-6837
▁satisf	-6838
▁Ohio	-6839
▁dating	-6840
▁17,	-6841
▁confident	-6842
▁hosted	-6843
▁landsc	-6844
▁flying	-6845
▁versions	-6846
▁strategic	-6847
▁stab	-6848
▁multi	-6849
▁successfully	-6850
aron	-6851
▁centuries	-6852
▁symbol	-6853
▁Austria	-6854
▁Federation	-6855
▁trains	-6856
▁filled	-6857
▁MPs	-6858
▁Vice	-6859
▁opposite	-6860
▁truly	-6861
▁Daily	-6862
▁script	-6863
▁mir	-6864
▁Norm	-6865
abilities	-6866
▁unus	-6867
▁Bad	-6868
▁extensive	-6869
omer	-6870
▁resol	-6871
▁coordin	-6872
ava	-6873
▁panel	-6874
▁tact	-6875
▁joining	-6876
▁aimed	-6877
gor	-6878
aste	-6879
▁24,	-6880
▁Castle	-6881
mates	-6882
ounced	-6883
ommod	-6884
▁ing	-6885
▁21,	-6886
▁capable	-6887
mat	-6888
iri	-6889
ranch	-6890
pread	-6891
week	-6892
▁rub	-6893
▁picked	-6894
▁Kelly	-6895
ilit	-6896
adesh	-6897
aret	-6898
▁Tony	-6899
▁Chap	-6900
▁locations	-6901
▁abandoned	-6902
uations	-6903
▁mum	-6904
▁shots	-6905
ses	-6906
edia	-6907
▁volume	-6908
▁boat	-6909
▁Constitution	-6910
▁transp	-6911
▁Po	-6912
▁Celt	-6913
stream	-6914
▁combination	-6915
▁Der	-6916
essions	-6917
▁tot	-6918
MA	-6919
▁exercise	-6920
amin	-6921
ami	-6922
▁fundamental	-6923
▁equival	-6924
▁fields	-6925
rete	-6926
▁Ren	-6927
▁heads	-6928
▁cards	-6929
▁YouT	-6930
▁Hay	-6931
▁dates	-6932
▁violent	-6933
▁none	-6934
mans	-6935
▁Tro	-6936
▁pron	-6937
▁25,	-6938
▁sole	-6939
umes	-6940
▁mel	-6941
▁evac	-6942
17	-6943
▁manage	-6944
TA	-6945
▁academic	-6946
▁suspended	-6947
▁literature	-6948
▁moves	-6949
▁sharing	-6950
▁repeatedly	-6951
▁Orig	-6952
hand	-6953
Russ	-6954
▁driven	-6955
rible	-6956
▁medium	-6957
▁Between	-6958
▁Mach	-6959
TS	-6960
▁1997	-6961
▁retirement	-6962
▁flo	-6963
osa	-6964
▁involving	-6965
uese	-6966
▁Nob	-6967
▁Light	-6968
olitan	-6969
icious	-6970
▁identify	-6971
▁obviously	-6972
▁tools	-6973
▁apartment	-6974
illery	-6975
gage	-6976
ovic	-6977
▁gent	-6978
andal	-6979
elle	-6980
idespread	-6981
fire	-6982
yard	-6983
▁performing	-6984
▁rid	-6985
▁Josh	-6986
▁package	-6987
ikely	-6988
rm	-6989
arity	-6990
▁stayed	-6991
owned	-6992
anz	-6993
▁Golden	-6994
▁Anthony	-6995
▁municipality	-6996
ideo	-6997
pton	-6998
▁familiar	-6999
jan	-7000
▁sculpt	-7001
▁prospect	-7002
▁iron	-7003
▁cro	-7004
▁Engine	-7005
▁alcohol	-7006
rations	-7007
▁strikes	-7008
▁Short	-7009
aze	-7010
▁Gun	-7011
):	-7012
▁Portugal	-7013
▁Davis	-7014
▁Pot	-7015
▁mi	-7016
▁talent	-7017
▁map	-7018
▁purchased	-7019
pson	-7020
▁behaviour	-7021
▁vital	-7022
);	-7023
▁Beach	-7024
▁Dig	-7025
▁anniversary	-7026
▁Pope	-7027
▁shif	-7028
▁crown	-7029
▁accommod	-7030
bell	-7031
▁roof	-7032
iency	-7033
lyn	-7034
▁Web	-7035
▁Sab	-7036
▁tank	-7037
▁1996	-7038
▁Sport	-7039
▁degrees	-7040
▁motiv	-7041
▁pilot	-7042
▁bath	-7043
▁mm	-7044
▁Fle	-7045
clusion	-7046
▁threatened	-7047
▁discussed	-7048
▁Kevin	-7049
▁divor	-7050
▁roads	-7051
▁euro	-7052
▁doctors	-7053
▁classic	-7054
▁targets	-7055
century	-7056
whel	-7057
achel	-7058
▁civilians	-7059
▁favourite	-7060
employ	-7061
eller	-7062
▁beach	-7063
▁Treaty	-7064
foot	-7065
ito	-7066
worth	-7067
▁frag	-7068
▁commander	-7069
▁38	-7070
▁chose	-7071
▁Cas	-7072
ails	-7073
▁22,	-7074
▁bench	-7075
▁Albert	-7076
▁28,	-7077
▁existence	-7078
▁hat	-7079
▁liqu	-7080
▁spin	-7081
▁religion	-7082
▁Croat	-7083
▁Bridge	-7084
▁FC	-7085
▁Slov	-7086
tra	-7087
▁Las	-7088
▁19,	-7089
▁guest	-7090
▁Still	-7091
iot	-7092
▁See	-7093
▁practices	-7094
▁arrival	-7095
▁offices	-7096
▁Marg	-7097
▁37	-7098
▁tennis	-7099
▁category	-7100
ho	-7101
▁Nik	-7102
▁copy	-7103
▁Greg	-7104
▁competitive	-7105
▁plenty	-7106
▁deleg	-7107
▁titled	-7108
▁|	-7109
apse	-7110
▁veget	-7111
ão	-7112
usal	-7113
▁organisation	-7114
▁graduated	-7115
inch	-7116
▁promised	-7117
▁offensive	-7118
▁towns	-7119
wegian	-7120
▁tall	-7121
▁relationships	-7122
▁structures	-7123
ups	-7124
▁farmers	-7125
▁jur	-7126
American	-7127
▁Id	-7128
▁Vi	-7129
▁meetings	-7130
▁web	-7131
▁Lim	-7132
▁desper	-7133
Un	-7134
elve	-7135
▁mouth	-7136
opher	-7137
▁voc	-7138
iev	-7139
▁Emperor	-7140
▁advis	-7141
▁switch	-7142
▁Harris	-7143
▁Food	-7144
anes	-7145
▁constant	-7146
▁discussion	-7147
▁Vo	-7148
▁objects	-7149
▁Simon	-7150
million	-7151
▁recover	-7152
▁portal	-7153
▁remind	-7154
▁sustainable	-7155
▁Fair	-7156
▁portray	-7157
▁€	-7158
micron	-7159
lishing	-7160
gressive	-7161
▁kitchen	-7162
▁operate	-7163
▁headquarters	-7164
▁Belg	-7165
▁fixed	-7166
▁widespread	-7167
▁Forest	-7168
alo	-7169
aug	-7170
▁Marsh	-7171
▁alive	-7172
▁personnel	-7173
▁Such	-7174
▁neut	-7175
▁ham	-7176
vard	-7177
▁CBS	-7178
▁solar	-7179
55	-7180
▁strongly	-7181
▁publication	-7182
rehens	-7183
▁Station	-7184
▁ourselves	-7185
▁passenger	-7186
su	-7187
eping	-7188
▁23,	-7189
▁priority	-7190
▁Nap	-7191
▁headed	-7192
▁Walker	-7193
power	-7194
Is	-7195
▁races	-7196
etary	-7197
iley	-7198
28	-7199
igenous	-7200
▁photograph	-7201
▁stun	-7202
▁likes	-7203
▁Hard	-7204
▁approval	-7205
▁Pass	-7206
▁everybody	-7207
▁Tam	-7208
▁phen	-7209
▁Ford	-7210
▁Review	-7211
▁claiming	-7212
ricts	-7213
▁coverage	-7214
ogether	-7215
▁GOP	-7216
és	-7217
▁drag	-7218
▁desire	-7219
▁scholars	-7220
avig	-7221
▁Russians	-7222
▁Turn	-7223
▁agricultural	-7224
▁foundation	-7225
▁deeply	-7226
▁brings	-7227
▁Network	-7228
iments	-7229
▁summit	-7230
▁75	-7231
▁:	-7232
▁sons	-7233
▁taxes	-7234
▁enjoyed	-7235
▁excited	-7236
▁Medical	-7237
▁charity	-7238
owed	-7239
▁lawsuit	-7240
▁controlled	-7241
▁signing	-7242
▁Kate	-7243
esters	-7244
▁stages	-7245
▁principle	-7246
▁incredible	-7247
▁bes	-7248
bra	-7249
▁Sav	-7250
▁anx	-7251
▁provin	-7252
▁tries	-7253
▁rooms	-7254
▁capture	-7255
▁inspir	-7256
ked	-7257
utenant	-7258
▁Holy	-7259
ropical	-7260
kes	-7261
▁Jess	-7262
▁rebu	-7263
-8	-7264
mo	-7265
aki	-7266
▁ties	-7267
ika	-7268
▁fled	-7269
apping	-7270
▁manner	-7271
acle	-7272
EL	-7273
▁targeted	-7274
▁castle	-7275
▁odd	-7276
▁trained	-7277
aria	-7278
▁contemporary	-7279
▁reporters	-7280
hedral	-7281
▁covers	-7282
▁48	-7283
▁missile	-7284
mad	-7285
▁mine	-7286
▁gro	-7287
▁succeeded	-7288
▁incl	-7289
▁displ	-7290
▁decor	-7291
▁prize	-7292
▁gang	-7293
▁Jesus	-7294
▁wounded	-7295
▁Stock	-7296
%,	-7297
state	-7298
▁foss	-7299
▁Alban	-7300
▁Technology	-7301
▁YouTube	-7302
▁extent	-7303
▁theatre	-7304
▁demands	-7305
▁Alf	-7306
▁hoping	-7307
▁funeral	-7308
▁Addition	-7309
▁subsequent	-7310
▁ped	-7311
▁hurt	-7312
▁26,	-7313
▁sweet	-7314
▁infection	-7315
▁observed	-7316
▁2006.	-7317
▁survived	-7318
season	-7319
▁sty	-7320
▁payments	-7321
▁auth	-7322
pan	-7323
▁Services	-7324
▁27,	-7325
▁waters	-7326
osh	-7327
▁encounter	-7328
33	-7329
▁premier	-7330
▁childhood	-7331
arus	-7332
▁borders	-7333
▁Abd	-7334
▁dynam	-7335
▁Ali	-7336
▁Cost	-7337
▁membership	-7338
ocated	-7339
▁actors	-7340
▁undert	-7341
asts	-7342
95	-7343
soft	-7344
▁reporting	-7345
▁intent	-7346
thur	-7347
▁Transport	-7348
GA	-7349
▁dogs	-7350
▁controversial	-7351
▁worried	-7352
▁fill	-7353
chestra	-7354
▁democratic	-7355
▁Brian	-7356
▁courts	-7357
▁2004,	-7358
▁MORE	-7359
▁representing	-7360
▁Eric	-7361
▁nominated	-7362
▁Library	-7363
hol	-7364
▁encourag	-7365
▁raising	-7366
▁tech	-7367
▁differences	-7368
▁Camer	-7369
▁1994	-7370
▁Oxford	-7371
▁Vis	-7372
▁borrow	-7373
▁Leon	-7374
asure	-7375
▁install	-7376
▁Thus	-7377
aro	-7378
chang	-7379
▁strict	-7380
▁wer	-7381
aph	-7382
▁Str	-7383
▁Ronald	-7384
which	-7385
▁accompan	-7386
▁confirm	-7387
erg	-7388
pected	-7389
▁selection	-7390
▁acceler	-7391
▁Jersey	-7392
▁principal	-7393
anka	-7394
ospitals	-7395
▁nom	-7396
▁indeed	-7397
▁Portuguese	-7398
iop	-7399
▁1,000	-7400
▁celebrated	-7401
▁disrupt	-7402
▁celebrate	-7403
orld	-7404
▁apparently	-7405
▁entitled	-7406
die	-7407
▁1992	-7408
▁useful	-7409
▁coffee	-7410
oli	-7411
▁manufacturing	-7412
▁contained	-7413
▁Exec	-7414
▁satell	-7415
luding	-7416
▁jury	-7417
▁advent	-7418
▁Denmark	-7419
▁1995	-7420
▁establishment	-7421
ifer	-7422
▁stake	-7423
bing	-7424
▁Children	-7425
▁finance	-7426
vy	-7427
▁walked	-7428
▁steel	-7429
▁firms	-7430
▁Fed	-7431
▁Les	-7432
▁dad	-7433
▁basketball	-7434
▁NAS	-7435
▁Defense	-7436
▁Members	-7437
▁PC	-7438
atab	-7439
oster	-7440
▁Mexican	-7441
▁rapidly	-7442
▁cricket	-7443
▁pip	-7444
▁understood	-7445
▁formation	-7446
▁beauty	-7447
ogan	-7448
eding	-7449
pret	-7450
JP	-7451
▁maintained	-7452
▁nurs	-7453
▁sending	-7454
▁administrative	-7455
▁representative	-7456
▁wake	-7457
▁Domin	-7458
wick	-7459
eta	-7460
apes	-7461
▁tower	-7462
▁1930	-7463
▁functions	-7464
▁considering	-7465
▁cong	-7466
▁birds	-7467
iece	-7468
▁9.	-7469
▁excellent	-7470
▁participate	-7471
▁sentenced	-7472
▁franch	-7473
phia	-7474
▁adds	-7475
olly	-7476
▁etc	-7477
▁Due	-7478
illiant	-7479
▁gap	-7480
▁hate	-7481
▁engineering	-7482
▁buying	-7483
▁excess	-7484
IL	-7485
ographer	-7486
▁immigration	-7487
▁tomorrow	-7488
44	-7489
▁Lie	-7490
▁bare	-7491
▁Sud	-7492
▁platforms	-7493
grade	-7494
rait	-7495
▁pled	-7496
▁Sri	-7497
▁architecture	-7498
Our	-7499
ielder	-7500
▁Clin	-7501
▁passion	-7502
▁laugh	-7503
▁myster	-7504
▁Bab	-7505
▁abroad	-7506
reek	-7507
▁aspects	-7508
▁Corps	-7509
oking	-7510
▁Bon	-7511
adi	-7512
▁unless	-7513
level	-7514
▁rear	-7515
▁Again	-7516
65	-7517
▁singles	-7518
–0	-7519
▁fleet	-7520
▁Mit	-7521
▁ranked	-7522
thew	-7523
▁refers	-7524
▁variant	-7525
▁pu	-7526
▁Hamilton	-7527
▁grounds	-7528
father	-7529
▁twenty	-7530
▁parent	-7531
▁temporary	-7532
▁Norwegian	-7533
▁Son	-7534
▁Corporation	-7535
▁Osc	-7536
▁Syria	-7537
▁cinem	-7538
▁empt	-7539
anth	-7540
▁meat	-7541
▁blow	-7542
▁tied	-7543
▁congress	-7544
▁moder	-7545
▁watched	-7546
ronze	-7547
▁library	-7548
▁Finland	-7549
▁fewer	-7550
▁listen	-7551
▁Crown	-7552
agen	-7553
▁spokesman	-7554
adelphia	-7555
▁sky	-7556
acking	-7557
holders	-7558
▁lots	-7559
zh	-7560
▁typical	-7561
▁Earlier	-7562
▁Swiss	-7563
▁assigned	-7564
dule	-7565
ogen	-7566
icy	-7567
▁Columbia	-7568
bel	-7569
▁DC	-7570
▁eating	-7571
▁neck	-7572
▁Bos	-7573
▁unlikely	-7574
▁2019.	-7575
▁battery	-7576
▁Sat	-7577
▁Han	-7578
▁comfortable	-7579
▁Pier	-7580
▁initiative	-7581
▁elig	-7582
▁Dor	-7583
▁Balt	-7584
ET	-7585
aser	-7586
▁mole	-7587
▁liberal	-7588
▁danger	-7589
▁convicted	-7590
▁Saf	-7591
▁signal	-7592
ching	-7593
▁Roberts	-7594
▁regulations	-7595
▁lux	-7596
▁Brad	-7597
▁breaking	-7598
▁medicine	-7599
▁DNA	-7600
away	-7601
▁Anne	-7602
▁Modern	-7603
▁Mess	-7604
iscal	-7605
▁Five	-7606
▁payment	-7607
▁grass	-7608
▁flex	-7609
▁corporate	-7610
▁agents	-7611
▁thick	-7612
▁rescue	-7613
▁encourage	-7614
▁proposals	-7615
▁sufficient	-7616
▁creative	-7617
▁singing	-7618
▁format	-7619
▁truck	-7620
Le	-7621
▁Ball	-7622
▁neither	-7623
▁suicide	-7624
ifications	-7625
inity	-7626
ía	-7627
vereign	-7628
ii	-7629
▁compens	-7630
cers	-7631
▁Trust	-7632
ser	-7633
orry	-7634
▁PS	-7635
▁PA	-7636
rates	-7637
▁Iranian	-7638
▁Var	-7639
▁2000,	-7640
▁Get	-7641
▁trouble	-7642
▁Staff	-7643
▁clothes	-7644
▁Budd	-7645
▁factory	-7646
wealth	-7647
okes	-7648
▁discover	-7649
▁Philadelphia	-7650
olis	-7651
▁equivalent	-7652
rating	-7653
▁overwhel	-7654
▁Miller	-7655
▁distingu	-7656
▁intention	-7657
ić	-7658
▁fruit	-7659
▁Hu	-7660
▁fears	-7661
▁Photograph	-7662
▁albums	-7663
lan	-7664
ician	-7665
▁saved	-7666
▁Never	-7667
▁export	-7668
▁Hur	-7669
▁optim	-7670
ür	-7671
▁29,	-7672
▁Ocean	-7673
▁Jacob	-7674
load	-7675
▁Captain	-7676
ropolitan	-7677
▁Burn	-7678
aud	-7679
▁survive	-7680
maker	-7681
▁dinner	-7682
▁racing	-7683
ateral	-7684
▁rally	-7685
ée	-7686
▁bon	-7687
▁upcoming	-7688
▁31,	-7689
▁occurs	-7690
▁Cooper	-7691
▁Sn	-7692
▁IV	-7693
▁Square	-7694
▁Winter	-7695
ules	-7696
mate	-7697
▁tor	-7698
▁Care	-7699
▁processes	-7700
RC	-7701
▁defensive	-7702
▁islands	-7703
On	-7704
ikh	-7705
▁pump	-7706
▁Philip	-7707
▁examples	-7708
arsh	-7709
▁apolog	-7710
bal	-7711
ando	-7712
▁subsc	-7713
esty	-7714
uration	-7715
▁collected	-7716
▁Information	-7717
ureau	-7718
▁reputation	-7719
▁usual	-7720
▁agenda	-7721
▁copies	-7722
▁shopping	-7723
▁eval	-7724
▁producing	-7725
▁NFL	-7726
▁tool	-7727
rett	-7728
inth	-7729
▁179	-7730
▁hosts	-7731
▁els	-7732
inations	-7733
▁Univers	-7734
▁dim	-7735
▁rum	-7736
agan	-7737
▁containing	-7738
SS	-7739
▁argument	-7740
ais	-7741
▁relative	-7742
▁villages	-7743
▁pace	-7744
orough	-7745
▁cloud	-7746
▁framework	-7747
▁sovereign	-7748
▁elsewhere	-7749
▁exhibition	-7750
▁fest	-7751
▁explo	-7752
▁embr	-7753
gate	-7754
▁customer	-7755
▁stable	-7756
▁collaboration	-7757
▁affairs	-7758
▁Ay	-7759
▁movies	-7760
ceived	-7761
▁profit	-7762
▁tail	-7763
▁sounds	-7764
▁Field	-7765
▁Belgium	-7766
▁efficient	-7767
dam	-7768
▁faster	-7769
▁renamed	-7770
▁af	-7771
▁arts	-7772
▁Produ	-7773
▁describes	-7774
▁conspir	-7775
▁42	-7776
anny	-7777
▁Dj	-7778
77	-7779
▁Circ	-7780
▁consecutive	-7781
▁Matthew	-7782
ompl	-7783
▁Bah	-7784
▁Crime	-7785
All	-7786
▁migrants	-7787
▁explains	-7788
etts	-7789
door	-7790
celona	-7791
▁Jenn	-7792
▁soil	-7793
▁Judge	-7794
▁Colorado	-7795
▁percentage	-7796
IP	-7797
▁Master	-7798
▁Singh	-7799
▁fab	-7800
▁pregnant	-7801
ashes	-7802
▁Hou	-7803
▁secondary	-7804
aven	-7805
▁falls	-7806
▁exposed	-7807
▁Melbourne	-7808
arth	-7809
iami	-7810
▁municipal	-7811
▁portion	-7812
▁AD	-7813
▁lad	-7814
▁forget	-7815
▁residence	-7816
▁Independent	-7817
▁disaster	-7818
▁hal	-7819
▁Nad	-7820
▁sight	-7821
▁gay	-7822
rolled	-7823
ulous	-7824
▁predict	-7825
boy	-7826
ewhat	-7827
▁Management	-7828
ells	-7829
▁los	-7830
eld	-7831
▁Story	-7832
▁recip	-7833
cies	-7834
apore	-7835
▁}	-7836
▁insisted	-7837
▁labour	-7838
ammed	-7839
aska	-7840
ogy	-7841
oyd	-7842
▁informed	-7843
▁supports	-7844
arr	-7845
Bl	-7846
organ	-7847
▁Celtic	-7848
▁dealing	-7849
outheast	-7850
ancer	-7851
▁principles	-7852
▁describe	-7853
▁Economic	-7854
VD	-7855
▁stability	-7856
▁atmosphere	-7857
des	-7858
▁reveals	-7859
▁soul	-7860
wo	-7861
net	-7862
▁acid	-7863
ture	-7864
making	-7865
▁Du	-7866
▁Communist	-7867
anger	-7868
▁Ath	-7869
agh	-7870
▁reducing	-7871
▁FIFA	-7872
▁gentle	-7873
emen	-7874
▁constitu	-7875
▁plastic	-7876
iller	-7877
▁resigned	-7878
▁introduction	-7879
ois	-7880
▁Jane	-7881
▁Ltd	-7882
xit	-7883
▁humanitarian	-7884
▁gift	-7885
▁employed	-7886
▁uniform	-7887
argo	-7888
▁ideal	-7889
▁Look	-7890
▁Veg	-7891
▁perspective	-7892
▁Hungary	-7893
▁Call	-7894
iated	-7895
sm	-7896
▁joy	-7897
auc	-7898
▁loyal	-7899
▁flee	-7900
▁Lib	-7901
how	-7902
▁ticket	-7903
▁Cambridge	-7904
ST	-7905
▁vary	-7906
raf	-7907
▁lake	-7908
▁cutting	-7909
▁Executive	-7910
omes	-7911
▁Buck	-7912
▁ministry	-7913
inois	-7914
market	-7915
▁entering	-7916
▁guests	-7917
endum	-7918
▁Brazilian	-7919
▁Exhibit	-7920
▁Anderson	-7921
lease	-7922
▁hospitals	-7923
▁vocal	-7924
writer	-7925
▁doors	-7926
▁Tokyo	-7927
▁Main	-7928
▁Barcelona	-7929
66	-7930
▁competed	-7931
▁accompl	-7932
▁expression	-7933
▁Kam	-7934
▁Spring	-7935
zens	-7936
▁Jay	-7937
▁interior	-7938
▁Tes	-7939
athy	-7940
▁IM	-7941
▁wider	-7942
▁resort	-7943
▁Environment	-7944
ieties	-7945
▁brown	-7946
hus	-7947
▁Nev	-7948
▁implementation	-7949
ders	-7950
▁Barb	-7951
▁ride	-7952
onto	-7953
minute	-7954
▁Administration	-7955
▁journalists	-7956
aza	-7957
▁Finally	-7958
▁tribute	-7959
▁astron	-7960
▁Amb	-7961
▁Ta	-7962
▁casual	-7963
achus	-7964
orship	-7965
GBT	-7966
allel	-7967
iture	-7968
▁brilliant	-7969
▁phenomen	-7970
▁outcome	-7971
▁Danish	-7972
▁fishing	-7973
▁reduction	-7974
▁Ku	-7975
▁1991	-7976
▁Ho	-7977
▁districts	-7978
▁file	-7979
▁absence	-7980
rator	-7981
▁mo	-7982
▁Hal	-7983
▁converted	-7984
▁anticip	-7985
▁preced	-7986
▁FBI	-7987
▁Miami	-7988
▁lawyers	-7989
enz	-7990
▁yield	-7991
▁elder	-7992
▁profile	-7993
▁Studies	-7994
▁footballer	-7995
inding	-7996
▁Sarah	-7997
▁depos	-7998
riers	-7999
mits	-8000
▁external	-8001
▁followers	-8002
▁prepare	-8003
▁encouraged	-8004
▁spaces	-8005
▁imagine	-8006
Getty	-8007
▁ax	-8008
▁Gil	-8009
▁begun	-8010
:00	-8011
isan	-8012
▁pure	-8013
▁relevant	-8014
▁procedure	-8015
▁representatives	-8016
▁detailed	-8017
▁comprom	-8018
▁Roy	-8019
▁Ts	-8020
▁sharp	-8021
▁Brother	-8022
▁seventh	-8023
andom	-8024
▁experiment	-8025
▁Ale	-8026
▁tie	-8027
▁Kazakhstan	-8028
▁coalition	-8029
▁Military	-8030
▁convent	-8031
esh	-8032
▁Organization	-8033
▁FA	-8034
ige	-8035
▁Singapore	-8036
▁enl	-8037
▁Ut	-8038
▁wheel	-8039
remlin	-8040
▁Pub	-8041
▁meters	-8042
▁diet	-8043
rome	-8044
▁expectations	-8045
▁technologies	-8046
▁1993	-8047
▁Province	-8048
▁exception	-8049
29	-8050
▁promotion	-8051
▁inhabitants	-8052
▁2003,	-8053
tical	-8054
▁institution	-8055
olas	-8056
month	-8057
▁busy	-8058
▁proport	-8059
▁alliance	-8060
▁favorite	-8061
ss	-8062
▁chances	-8063
▁les	-8064
▁somewhat	-8065
▁worker	-8066
▁pushing	-8067
tering	-8068
lete	-8069
▁Early	-8070
aimed	-8071
▁coun	-8072
▁2005.	-8073
▁punish	-8074
▁reviews	-8075
▁Ukrainians	-8076
▁Stone	-8077
olds	-8078
▁diplomatic	-8079
▁avo	-8080
omy	-8081
appy	-8082
▁weren	-8083
▁visible	-8084
▁strain	-8085
▁handle	-8086
▁Commonwealth	-8087
▁Arabia	-8088
IM	-8089
▁Roll	-8090
48	-8091
▁discl	-8092
earing	-8093
▁Michel	-8094
▁depending	-8095
▁exped	-8096
▁ble	-8097
ishi	-8098
▁update	-8099
▁poly	-8100
NP	-8101
▁Antonio	-8102
enez	-8103
▁Front	-8104
▁literally	-8105
izz	-8106
▁stead	-8107
▁recovered	-8108
▁Vietnam	-8109
▁unusual	-8110
▁feelings	-8111
kh	-8112
▁simpl	-8113
▁lect	-8114
but	-8115
▁passes	-8116
▁Forces	-8117
▁Kal	-8118
▁overturn	-8119
▁Gro	-8120
▁prisoners	-8121
▁aired	-8122
▁currency	-8123
▁visual	-8124
▁extension	-8125
▁visiting	-8126
arma	-8127
isms	-8128
▁fallen	-8129
ello	-8130
▁challenging	-8131
▁stronger	-8132
see	-8133
▁Illinois	-8134
▁Patrick	-8135
ordon	-8136
▁Thank	-8137
athered	-8138
▁mal	-8139
▁regarded	-8140
▁normally	-8141
offs	-8142
▁Sami	-8143
▁crop	-8144
▁persons	-8145
final	-8146
ante	-8147
▁influenced	-8148
▁champions	-8149
▁designated	-8150
▁flowers	-8151
▁briefly	-8152
hour	-8153
▁depth	-8154
▁constitutional	-8155
ulty	-8156
▁Armenia	-8157
76	-8158
din	-8159
▁appointment	-8160
▁civilian	-8161
▁Zh	-8162
roke	-8163
▁arrive	-8164
▁ITV	-8165
▁sam	-8166
▁Meghan	-8167
▁Age	-8168
▁thousand	-8169
▁athletes	-8170
▁Nich	-8171
▁collapse	-8172
rov	-8173
▁Rose	-8174
iamond	-8175
pes	-8176
▁Deputy	-8177
emet	-8178
▁clim	-8179
▁Watch	-8180
▁wick	-8181
▁convin	-8182
▁thinks	-8183
▁limits	-8184
ardo	-8185
▁accompanied	-8186
▁closing	-8187
ques	-8188
▁Graham	-8189
▁Moon	-8190
▁valid	-8191
ordinary	-8192
▁nick	-8193
rently	-8194
▁Railway	-8195
▁promise	-8196
▁trick	-8197
▁reforms	-8198
▁drinking	-8199
▁Reserve	-8200
▁praised	-8201
raction	-8202
after	-8203
▁Dri	-8204
▁recommended	-8205
▁constitution	-8206
▁adjust	-8207
uable	-8208
▁surprised	-8209
produ	-8210
▁temple	-8211
▁120	-8212
▁nort	-8213
▁BJP	-8214
▁recalled	-8215
▁Maj	-8216
▁Nord	-8217
▁winners	-8218
▁lob	-8219
cons	-8220
uction	-8221
odox	-8222
▁Dur	-8223
eland	-8224
▁landing	-8225
▁Writ	-8226
case	-8227
rimination	-8228
arn	-8229
▁tackle	-8230
▁honour	-8231
▁cos	-8232
onc	-8233
▁windows	-8234
▁cup	-8235
▁reun	-8236
▁replied	-8237
▁RE	-8238
▁installed	-8239
▁UC	-8240
▁(5	-8241
▁Mail	-8242
▁Andre	-8243
inum	-8244
▁Low	-8245
▁Lyn	-8246
▁Morgan	-8247
▁brut	-8248
▁unemploy	-8249
▁impressive	-8250
").	-8251
▁protein	-8252
▁Ext	-8253
▁findings	-8254
▁heading	-8255
▁Born	-8256
▁genus	-8257
▁imprison	-8258
olen	-8259
▁Belarus	-8260
resident	-8261
icken	-8262
hr	-8263
▁Finn	-8264
▁backed	-8265
▁duties	-8266
▁fur	-8267
ylum	-8268
▁Adams	-8269
▁cancel	-8270
▁44	-8271
▁campus	-8272
▁Mayor	-8273
▁fulf	-8274
achusetts	-8275
otte	-8276
▁vaccines	-8277
▁dispute	-8278
▁popularity	-8279
▁legit	-8280
minster	-8281
▁Equ	-8282
aders	-8283
▁suddenly	-8284
▁Having	-8285
enh	-8286
▁Obama	-8287
▁cited	-8288
▁marketing	-8289
▁marks	-8290
▁compris	-8291
▁composer	-8292
▁Russell	-8293
▁AC	-8294
38	-8295
▁participants	-8296
▁plate	-8297
▁string	-8298
found	-8299
How	-8300
▁referendum	-8301
▁friendly	-8302
aughters	-8303
imp	-8304
▁legs	-8305
▁Microsoft	-8306
▁surve	-8307
▁evolution	-8308
▁sup	-8309
mother	-8310
▁franchise	-8311
▁Sher	-8312
▁destruction	-8313
▁Imp	-8314
▁missiles	-8315
▁entrance	-8316
▁guide	-8317
▁electronic	-8318
OC	-8319
▁schedule	-8320
▁Arthur	-8321
▁Tun	-8322
▁Senator	-8323
inter	-8324
▁clients	-8325
▁producers	-8326
▁Moroc	-8327
▁handed	-8328
▁Bry	-8329
▁derived	-8330
▁Third	-8331
▁rocket	-8332
▁55	-8333
▁Bowl	-8334
▁ocean	-8335
wich	-8336
▁Kremlin	-8337
▁39	-8338
▁qualified	-8339
▁Massachusetts	-8340
anguage	-8341
▁imposed	-8342
sect	-8343
▁drawing	-8344
▁regulation	-8345
▁navig	-8346
▁unclear	-8347
urches	-8348
▁welcom	-8349
idae	-8350
▁Cook	-8351
ania	-8352
79	-8353
▁myth	-8354
▁Rub	-8355
SE	-8356
render	-8357
▁activists	-8358
▁reven	-8359
▁participation	-8360
▁minority	-8361
▁posts	-8362
▁endors	-8363
▁educational	-8364
▁Band	-8365
▁designer	-8366
▁sugar	-8367
▁Na	-8368
▁dramatic	-8369
▁talked	-8370
hips	-8371
emetery	-8372
ellect	-8373
merce	-8374
▁Anna	-8375
▁Video	-8376
▁tort	-8377
▁intense	-8378
enders	-8379
atabase	-8380
don	-8381
BN	-8382
▁Sciences	-8383
▁contribution	-8384
▁obst	-8385
ilst	-8386
▁Final	-8387
▁networks	-8388
▁nut	-8389
usive	-8390
▁restaurants	-8391
ugg	-8392
▁LGBT	-8393
orious	-8394
▁aer	-8395
▁Adv	-8396
king	-8397
▁Exper	-8398
▁1940	-8399
▁outbreak	-8400
▁hang	-8401
▁bass	-8402
▁parliamentary	-8403
▁surrounded	-8404
▁Mars	-8405
▁Ye	-8406
▁Laure	-8407
▁Phill	-8408
▁properly	-8409
36	-8410
▁practical	-8411
fast	-8412
assy	-8413
western	-8414
▁indicated	-8415
▁Ru	-8416
▁Drag	-8417
▁Train	-8418
arat	-8419
▁slowly	-8420
hist	-8421
▁Digital	-8422
▁index	-8423
Sp	-8424
▁mode	-8425
▁Chile	-8426
▁remote	-8427
▁failing	-8428
▁hired	-8429
▁liquid	-8430
▁publ	-8431
▁$1.	-8432
▁12.	-8433
▁Bush	-8434
abet	-8435
▁articles	-8436
jo	-8437
▁Whit	-8438
▁privile	-8439
▁Hit	-8440
▁philosophy	-8441
▁10-	-8442
▁considerable	-8443
▁Fern	-8444
iang	-8445
axy	-8446
▁lowest	-8447
▁Mand	-8448
▁struggled	-8449
▁agriculture	-8450
▁49	-8451
▁neighb	-8452
▁pray	-8453
ibilities	-8454
▁protesters	-8455
▁defending	-8456
regon	-8457
▁purposes	-8458
icking	-8459
"),	-8460
xic	-8461
▁Treas	-8462
▁2023	-8463
▁dialogue	-8464
▁consumption	-8465
▁enorm	-8466
▁11.	-8467
anni	-8468
▁exceed	-8469
▁conqu	-8470
gal	-8471
85	-8472
▁shr	-8473
scale	-8474
arry	-8475
▁Bishop	-8476
▁wore	-8477
▁harder	-8478
▁kilometres	-8479
estyle	-8480
▁Therefore	-8481
100	-8482
▁landscape	-8483
▁corruption	-8484
▁dismissed	-8485
▁Sin	-8486
▁65	-8487
▁clothing	-8488
▁pill	-8489
fielder	-8490
▁fossil	-8491
▁covering	-8492
400	-8493
▁lawmakers	-8494
▁judges	-8495
▁column	-8496
idance	-8497
▁inaug	-8498
iga	-8499
ogs	-8500
lov	-8501
▁Aud	-8502
▁deliber	-8503
▁reveal	-8504
▁ownership	-8505
▁theat	-8506
▁Dal	-8507
▁output	-8508
▁Duc	-8509
▁Yes	-8510
▁Right	-8511
▁Bull	-8512
▁Houston	-8513
▁mini	-8514
▁genu	-8515
▁Queens	-8516
▁techniques	-8517
▁fee	-8518
▁universities	-8519
▁opponents	-8520
▁unex	-8521
▁Convention	-8522
▁absor	-8523
▁AM	-8524
▁periods	-8525
▁1989	-8526
▁empty	-8527
▁surviv	-8528
rooms	-8529
oln	-8530
ori	-8531
razy	-8532
▁cabinet	-8533
▁Ian	-8534
SA	-8535
▁involvement	-8536
▁quit	-8537
quiry	-8538
urers	-8539
▁Brig	-8540
▁tickets	-8541
▁Beat	-8542
▁fro	-8543
▁Next	-8544
At	-8545
ricane	-8546
▁climb	-8547
▁Ethiop	-8548
▁tonight	-8549
▁possession	-8550
▁definition	-8551
▁Indonesia	-8552
▁partly	-8553
▁replacement	-8554
je	-8555
▁IP	-8556
▁Has	-8557
▁infections	-8558
▁Plat	-8559
▁Doctor	-8560
:30	-8561
▁mathemat	-8562
▁Trade	-8563
▁aims	-8564
▁Hand	-8565
49	-8566
▁upset	-8567
raid	-8568
abs	-8569
▁Shan	-8570
▁virtual	-8571
▁commented	-8572
▁concerning	-8573
track	-8574
▁occasions	-8575
▁writers	-8576
▁radical	-8577
▁cous	-8578
▁authors	-8579
37	-8580
▁knowing	-8581
elli	-8582
▁please	-8583
▁attached	-8584
▁extend	-8585
▁Leban	-8586
crib	-8587
▁mistake	-8588
▁Country	-8589
umer	-8590
▁Lith	-8591
▁Ele	-8592
▁opera	-8593
oni	-8594
▁ster	-8595
▁Toronto	-8596
▁implemented	-8597
▁delight	-8598
▁Trib	-8599
▁resemb	-8600
▁Unlike	-8601
▁stuck	-8602
arts	-8603
▁Cry	-8604
▁preparing	-8605
▁clinical	-8606
SC	-8607
▁merch	-8608
▁interpret	-8609
ancial	-8610
▁Oregon	-8611
MT	-8612
erman	-8613
▁Did	-8614
roid	-8615
▁(20	-8616
1%	-8617
ilateral	-8618
stal	-8619
ranean	-8620
▁movements	-8621
▁Ka	-8622
▁ancest	-8623
olt	-8624
erbai	-8625
▁proof	-8626
vo	-8627
indu	-8628
▁engines	-8629
ardens	-8630
Every	-8631
▁(6	-8632
▁legislative	-8633
sters	-8634
▁Colomb	-8635
▁estimates	-8636
ski	-8637
▁rarely	-8638
bles	-8639
▁neutral	-8640
▁caption	-8641
▁speaks	-8642
▁asks	-8643
▁gathered	-8644
▁restored	-8645
▁starring	-8646
eras	-8647
De	-8648
▁paintings	-8649
▁util	-8650
▁milk	-8651
high	-8652
obile	-8653
▁discip	-8654
▁viewed	-8655
idelines	-8656
▁Lin	-8657
theless	-8658
unc	-8659
▁substantial	-8660
▁Allen	-8661
▁TH	-8662
▁ABC	-8663
▁organisations	-8664
ni	-8665
▁AT	-8666
▁exists	-8667
▁forth	-8668
▁links	-8669
▁($	-8670
▁Wolf	-8671
▁remarks	-8672
▁entertainment	-8673
▁Palestinian	-8674
Se	-8675
rific	-8676
▁Prix	-8677
aching	-8678
▁distributed	-8679
▁2001,	-8680
▁AR	-8681
▁eligible	-8682
▁moral	-8683
aux	-8684
ulating	-8685
▁addressed	-8686
▁2002,	-8687
▁Mother	-8688
▁inher	-8689
▁McK	-8690
▁essentially	-8691
▁relax	-8692
▁contributions	-8693
▁frame	-8694
repren	-8695
▁Diego	-8696
▁discovery	-8697
▁founding	-8698
viously	-8699
▁cann	-8700
umph	-8701
88	-8702
▁hide	-8703
otal	-8704
▁lyrics	-8705
▁43	-8706
▁Lam	-8707
▁thoughts	-8708
oned	-8709
▁classical	-8710
▁drew	-8711
▁Vegas	-8712
-10	-8713
▁3-	-8714
▁dollar	-8715
▁landed	-8716
ilation	-8717
profit	-8718
▁OK	-8719
▁surf	-8720
▁Cer	-8721
▁earliest	-8722
▁Guardian	-8723
agu	-8724
▁Cra	-8725
▁artillery	-8726
▁parallel	-8727
thodox	-8728
intend	-8729
mers	-8730
▁industries	-8731
▁communications	-8732
host	-8733
▁convinced	-8734
▁provision	-8735
▁collaps	-8736
▁anywhere	-8737
▁finishing	-8738
▁personality	-8739
▁amounts	-8740
▁pounds	-8741
▁separated	-8742
▁Gulf	-8743
▁engage	-8744
▁furn	-8745
▁Command	-8746
▁lights	-8747
rehensive	-8748
▁Thompson	-8749
▁constantly	-8750
▁Westminster	-8751
▁Hotel	-8752
hetic	-8753
▁IN	-8754
▁Attorney	-8755
▁Murray	-8756
▁recru	-8757
▁facilit	-8758
▁Abu	-8759
▁folk	-8760
orne	-8761
▁cancelled	-8762
▁Ot	-8763
▁fasc	-8764
▁investments	-8765
endar	-8766
ctic	-8767
▁thin	-8768
rous	-8769
▁Austrian	-8770
▁Gib	-8771
oca	-8772
ateful	-8773
▁bom	-8774
oly	-8775
▁Moore	-8776
▁hors	-8777
burn	-8778
▁discussions	-8779
ibl	-8780
▁Hug	-8781
▁prohib	-8782
▁weekly	-8783
▁Kap	-8784
orous	-8785
▁Emer	-8786
▁writes	-8787
▁dict	-8788
ifies	-8789
ailed	-8790
▁Freder	-8791
amps	-8792
Be	-8793
▁piano	-8794
▁Pit	-8795
▁Colon	-8796
▁incredibly	-8797
▁Dall	-8798
▁Mov	-8799
▁fiscal	-8800
▁investigating	-8801
▁invent	-8802
▁Local	-8803
▁routes	-8804
▁Andy	-8805
▁warn	-8806
▁diseases	-8807
▁engineer	-8808
▁Kansas	-8809
▁literary	-8810
▁viral	-8811
cha	-8812
▁Death	-8813
▁assass	-8814
▁crossing	-8815
▁tex	-8816
▁phr	-8817
▁reserve	-8818
▁keen	-8819
▁mit	-8820
▁Gov	-8821
ieval	-8822
▁Hart	-8823
▁consistent	-8824
▁relation	-8825
uv	-8826
▁totally	-8827
▁escal	-8828
▁painted	-8829
▁Hans	-8830
▁assumed	-8831
▁suffer	-8832
▁delayed	-8833
▁Marine	-8834
▁guarantee	-8835
▁Around	-8836
rik	-8837
▁Peace	-8838
▁Vin	-8839
▁conclusion	-8840
▁pages	-8841
▁Mas	-8842
▁mining	-8843
▁custody	-8844
▁commissioned	-8845
▁residential	-8846
▁healthcare	-8847
game	-8848
▁clock	-8849
elson	-8850
▁surrender	-8851
▁kinds	-8852
▁formally	-8853
▁guidance	-8854
▁fu	-8855
▁Connect	-8856
▁blocked	-8857
▁diverse	-8858
▁Kennedy	-8859
▁longest	-8860
▁wonderful	-8861
▁shouldn	-8862
▁formerly	-8863
▁hoped	-8864
▁situations	-8865
ikes	-8866
▁employee	-8867
cription	-8868
▁Atlanta	-8869
▁Dream	-8870
oric	-8871
▁vaccinated	-8872
39	-8873
▁Brun	-8874
▁Il	-8875
eria	-8876
TC	-8877
▁designs	-8878
▁comed	-8879
▁vaccination	-8880
▁Stew	-8881
ouri	-8882
▁2004.	-8883
▁eggs	-8884
▁wal	-8885
▁stim	-8886
▁daughters	-8887
▁wrest	-8888
▁cul	-8889
▁milit	-8890
▁exciting	-8891
▁referring	-8892
▁golf	-8893
▁Defence	-8894
▁Jason	-8895
active	-8896
▁successor	-8897
▁pursue	-8898
umed	-8899
oslav	-8900
▁conven	-8901
▁airline	-8902
!!	-8903
▁Control	-8904
▁Officer	-8905
▁1988	-8906
▁id	-8907
aration	-8908
▁Bureau	-8909
▁collective	-8910
▁acknowledged	-8911
▁Avenue	-8912
▁opponent	-8913
▁Base	-8914
▁attacking	-8915
▁awareness	-8916
50,000	-8917
▁diversity	-8918
▁fiction	-8919
▁classified	-8920
▁Non	-8921
▁Capital	-8922
former	-8923
▁occupation	-8924
-7	-8925
▁$5	-8926
issance	-8927
▁Gram	-8928
inking	-8929
▁controversy	-8930
▁tiny	-8931
▁disag	-8932
▁lasted	-8933
▁helic	-8934
fortunately	-8935
▁musician	-8936
▁puts	-8937
▁NBA	-8938
▁involves	-8939
was	-8940
▁baseball	-8941
▁tum	-8942
▁notably	-8943
di	-8944
child	-8945
Re	-8946
ocation	-8947
▁Ref	-8948
▁cheap	-8949
▁Commons	-8950
▁Karl	-8951
▁Pay	-8952
▁Venez	-8953
sky	-8954
erted	-8955
elfare	-8956
▁smooth	-8957
▁Alexand	-8958
▁Nazi	-8959
▁therapy	-8960
▁Buff	-8961
▁Jen	-8962
tenance	-8963
▁www	-8964
▁concrete	-8965
olid	-8966
▁departure	-8967
▁rounds	-8968
▁pregnancy	-8969
▁ju	-8970
▁contribute	-8971
▁monthly	-8972
▁Bey	-8973
▁controls	-8974
▁inner	-8975
▁Brexit	-8976
▁flav	-8977
ashing	-8978
▁brands	-8979
▁ballot	-8980
rip	-8981
▁Chairman	-8982
▁legacy	-8983
▁Vienna	-8984
▁processing	-8985
▁Imperial	-8986
▁pup	-8987
▁Armenian	-8988
▁Dod	-8989
acher	-8990
▁boot	-8991
▁theater	-8992
▁Omicron	-8993
iterranean	-8994
▁Azerbai	-8995
olished	-8996
▁mountains	-8997
▁defender	-8998
▁situated	-8999
igrant	-9000
▁formula	-9001
▁Grant	-9002
▁sin	-9003
▁studying	-9004
▁Austin	-9005
imental	-9006
▁necessarily	-9007
▁Dougl	-9008
atherine	-9009
47	-9010
uther	-9011
▁narrative	-9012
▁instruments	-9013
▁Set	-9014
▁seed	-9015
xual	-9016
▁yes	-9017
▁personally	-9018
▁Crit	-9019
▁advertising	-9020
▁somebody	-9021
▁improving	-9022
▁enable	-9023
election	-9024
To	-9025
yr	-9026
▁blame	-9027
▁aggressive	-9028
▁Entertainment	-9029
▁subjects	-9030
▁bacter	-9031
▁Dublin	-9032
igger	-9033
▁Others	-9034
▁seg	-9035
▁Princ	-9036
▁sed	-9037
ourse	-9038
▁lift	-9039
▁Gordon	-9040
▁Tel	-9041
▁Near	-9042
▁segment	-9043
▁mandate	-9044
▁generations	-9045
SR	-9046
iban	-9047
▁objective	-9048
ologists	-9049
inction	-9050
▁competing	-9051
▁streaming	-9052
▁seized	-9053
▁grab	-9054
▁grain	-9055
▁Dead	-9056
▁ca	-9057
▁populations	-9058
iac	-9059
eck	-9060
▁filmed	-9061
rors	-9062
▁Shah	-9063
izon	-9064
▁managing	-9065
▁enthus	-9066
▁Was	-9067
▁Alger	-9068
HL	-9069
iere	-9070
▁Windows	-9071
▁conspiracy	-9072
▁Scient	-9073
chell	-9074
ocket	-9075
▁intellect	-9076
▁angry	-9077
▁territories	-9078
▁Prom	-9079
▁veteran	-9080
▁Wol	-9081
▁Vik	-9082
pat	-9083
▁asylum	-9084
▁Data	-9085
▁_{	-9086
▁Hold	-9087
ét	-9088
▁ingred	-9089
▁salt	-9090
▁para	-9091
gun	-9092
▁hitting	-9093
▁hole	-9094
▁Beng	-9095
Pe	-9096
▁Liberal	-9097
▁activist	-9098
▁polls	-9099
▁RT	-9100
▁criticized	-9101
▁client	-9102
46	-9103
▁components	-9104
▁Upon	-9105
▁Sound	-9106
izer	-9107
▁heritage	-9108
▁Express	-9109
rix	-9110
▁restric	-9111
▁Egyptian	-9112
▁Along	-9113
zer	-9114
Pl	-9115
irts	-9116
▁Silver	-9117
▁reprodu	-9118
▁error	-9119
▁harass	-9120
irds	-9121
▁chann	-9122
uits	-9123
▁dozen	-9124
nesota	-9125
▁AN	-9126
▁Similar	-9127
incoln	-9128
▁satellite	-9129
rection	-9130
▁technique	-9131
▁helicop	-9132
ovo	-9133
eneration	-9134
▁reward	-9135
▁keeps	-9136
▁Disc	-9137
▁clip	-9138
▁Cape	-9139
afe	-9140
▁bronze	-9141
7%	-9142
▁bread	-9143
▁Ow	-9144
▁staying	-9145
▁intervention	-9146
▁universe	-9147
▁Hungarian	-9148
▁accord	-9149
▁bull	-9150
▁Romania	-9151
▁Prior	-9152
▁engagement	-9153
▁appearing	-9154
igious	-9155
▁Rick	-9156
▁Phys	-9157
▁cream	-9158
▁Mountain	-9159
castle	-9160
rapped	-9161
▁renov	-9162
▁argue	-9163
▁assessment	-9164
▁rig	-9165
▁dozens	-9166
▁translated	-9167
oa	-9168
▁Ry	-9169
▁sectors	-9170
▁battles	-9171
▁aside	-9172
▁tempor	-9173
300	-9174
ista	-9175
▁Ped	-9176
▁Season	-9177
▁Financial	-9178
insula	-9179
woman	-9180
▁Dave	-9181
▁Alan	-9182
▁Friend	-9183
▁rent	-9184
▁coastal	-9185
▁noise	-9186
2%	-9187
▁scr	-9188
▁submitted	-9189
▁Lithuan	-9190
antis	-9191
▁♫	-9192
▁monitoring	-9193
▁pharm	-9194
▁podcast	-9195
▁attending	-9196
▁transportation	-9197
acre	-9198
▁Milan	-9199
▁youngest	-9200
▁recession	-9201
▁10,000	-9202
▁uncom	-9203
OL	-9204
▁calc	-9205
▁gradually	-9206
uz	-9207
Man	-9208
roph	-9209
▁wire	-9210
▁suspected	-9211
▁deployed	-9212
▁Gene	-9213
aturally	-9214
▁Minnesota	-9215
▁Dark	-9216
600	-9217
oen	-9218
Russian	-9219
▁°	-9220
▁Take	-9221
▁backing	-9222
ded	-9223
▁Venezuel	-9224
icial	-9225
▁gal	-9226
▁Within	-9227
▁scores	-9228
ervatives	-9229
▁swimming	-9230
▁extraordinary	-9231
▁emerging	-9232
rient	-9233
▁requested	-9234
ING	-9235
▁explan	-9236
▁Authority	-9237
▁operational	-9238
▁innovation	-9239
▁Billboard	-9240
▁sections	-9241
▁acquis	-9242
half	-9243
▁luxury	-9244
▁por	-9245
▁drove	-9246
6%	-9247
▁Additionally	-9248
looking	-9249
▁Opp	-9250
onymous	-9251
▁Rab	-9252
▁Area	-9253
▁meets	-9254
▁vessels	-9255
▁Prim	-9256
▁Until	-9257
▁fault	-9258
mm	-9259
▁sequence	-9260
▁executed	-9261
▁Malays	-9262
▁Holl	-9263
▁priest	-9264
▁papers	-9265
▁Inn	-9266
▁loans	-9267
othe	-9268
▁Benn	-9269
▁Bulgar	-9270
mont	-9271
▁promoting	-9272
▁secured	-9273
▁tag	-9274
▁agreements	-9275
▁iPh	-9276
▁midfielder	-9277
▁presidency	-9278
▁rif	-9279
▁profits	-9280
ushing	-9281
ussels	-9282
▁basically	-9283
▁sensitive	-9284
osi	-9285
▁Ga	-9286
usalem	-9287
▁ease	-9288
▁prosecutors	-9289
eli	-9290
▁Storm	-9291
omot	-9292
▁blind	-9293
▁influential	-9294
▁assembly	-9295
▁exit	-9296
▁afraid	-9297
▁Cole	-9298
▁electoral	-9299
▁comic	-9300
mingham	-9301
▁machines	-9302
overs	-9303
▁contracts	-9304
▁calm	-9305
new	-9306
▁persu	-9307
▁savings	-9308
2),	-9309
▁solve	-9310
▁Lincoln	-9311
▁attempting	-9312
▁centers	-9313
ource	-9314
▁organised	-9315
hard	-9316
3%	-9317
emed	-9318
▁horror	-9319
brid	-9320
▁pione	-9321
▁cooking	-9322
PDF	-9323
▁cycl	-9324
▁celebration	-9325
▁theore	-9326
800	-9327
▁discrimination	-9328
▁throne	-9329
▁1986	-9330
▁IC	-9331
▁guess	-9332
▁bands	-9333
ystem	-9334
▁updated	-9335
▁propag	-9336
▁complicated	-9337
▁178	-9338
▁difficulties	-9339
▁Mediterranean	-9340
▁waves	-9341
▁scar	-9342
▁tons	-9343
2).	-9344
mi	-9345
hatt	-9346
▁tourism	-9347
elta	-9348
▁NASA	-9349
▁Howard	-9350
▁Kos	-9351
4%	-9352
▁parish	-9353
▁immun	-9354
▁venue	-9355
▁jack	-9356
▁toler	-9357
▁campaigns	-9358
▁toll	-9359
▁Alliance	-9360
▁Chen	-9361
▁Event	-9362
One	-9363
irates	-9364
▁spotted	-9365
also	-9366
ective	-9367
▁incidents	-9368
▁Peters	-9369
▁Ottoman	-9370
▁Od	-9371
▁tanks	-9372
▁lying	-9373
▁symp	-9374
▁prev	-9375
▁pension	-9376
▁dish	-9377
▁starred	-9378
▁representation	-9379
orer	-9380
aning	-9381
▁Policy	-9382
▁Philippines	-9383
▁welcomed	-9384
top	-9385
▁afterwards	-9386
lights	-9387
▁barrel	-9388
▁queen	-9389
▁rugby	-9390
▁rape	-9391
▁testim	-9392
gorith	-9393
wart	-9394
▁autonom	-9395
▁scandal	-9396
▁immigrants	-9397
▁Design	-9398
▁Heart	-9399
▁DVD	-9400
preced	-9401
▁enormous	-9402
▁innings	-9403
uri	-9404
aper	-9405
▁crypto	-9406
LC	-9407
▁operates	-9408
▁colonial	-9409
▁racial	-9410
▁poetry	-9411
bean	-9412
oples	-9413
▁dominated	-9414
▁Dallas	-9415
▁mic	-9416
▁batter	-9417
anches	-9418
from	-9419
▁conscious	-9420
▁gym	-9421
▁taste	-9422
▁discount	-9423
-9	-9424
▁Pun	-9425
Cl	-9426
▁Douglas	-9427
▁wet	-9428
▁greatly	-9429
frac	-9430
▁parking	-9431
▁efficiency	-9432
▁indicate	-9433
elsh	-9434
▁chat	-9435
▁beating	-9436
▁repair	-9437
breaking	-9438
▁Hag	-9439
▁Point	-9440
isd	-9441
lims	-9442
iva	-9443
range	-9444
▁Rest	-9445
udes	-9446
▁citing	-9447
▁stating	-9448
▁stepped	-9449
fol	-9450
▁fighter	-9451
through	-9452
▁hill	-9453
nessee	-9454
▁exposure	-9455
▁shops	-9456
▁consisted	-9457
▁grav	-9458
▁Ec	-9459
eor	-9460
alia	-9461
▁investigate	-9462
▁magic	-9463
anted	-9464
agers	-9465
▁Much	-9466
▁Culture	-9467
▁arriving	-9468
acht	-9469
precedented	-9470
▁ensuring	-9471
▁Sha	-9472
▁Rio	-9473
▁Machine	-9474
▁homeless	-9475
▁opens	-9476
▁Indeed	-9477
▁Fact	-9478
▁Serbia	-9479
▁Xi	-9480
emies	-9481
▁absolute	-9482
▁blocks	-9483
▁chamber	-9484
▁predec	-9485
▁complaint	-9486
▁Jerusalem	-9487
▁nomination	-9488
antine	-9489
kov	-9490
▁ordinary	-9491
▁attracted	-9492
▁1984	-9493
fers	-9494
▁600	-9495
▁crack	-9496
▁Lanka	-9497
Oh	-9498
▁1987	-9499
utt	-9500
phe	-9501
▁Ban	-9502
▁Taliban	-9503
▁visits	-9504
lah	-9505
▁protecting	-9506
▁marry	-9507
▁permission	-9508
left	-9509
ographical	-9510
andy	-9511
▁speaker	-9512
▁Years	-9513
▁Ronaldo	-9514
contin	-9515
vi	-9516
▁incorporated	-9517
owell	-9518
▁gif	-9519
▁tea	-9520
bled	-9521
▁Alab	-9522
▁eighth	-9523
lu	-9524
▁Wy	-9525
▁travelling	-9526
▁Birmingham	-9527
grad	-9528
▁Box	-9529
oren	-9530
▁procedures	-9531
ateur	-9532
▁liv	-9533
▁churches	-9534
▁EP	-9535
▁Harvard	-9536
▁observ	-9537
▁knee	-9538
▁2003.	-9539
▁overseas	-9540
▁Oscar	-9541
▁Rud	-9542
▁41	-9543
ested	-9544
▁valuable	-9545
oting	-9546
▁Boe	-9547
▁Kings	-9548
▁recognised	-9549
idays	-9550
▁channels	-9551
▁autumn	-9552
▁dub	-9553
▁Juan	-9554
FP	-9555
▁hidden	-9556
▁annually	-9557
▁Hills	-9558
olo	-9559
▁revers	-9560
▁Origin	-9561
owing	-9562
▁Tennessee	-9563
eared	-9564
▁treaty	-9565
▁bars	-9566
▁saving	-9567
▁ma	-9568
▁breaks	-9569
▁1999,	-9570
▁accus	-9571
arks	-9572
iege	-9573
▁random	-9574
▁recognize	-9575
▁programming	-9576
▁fairly	-9577
▁unsu	-9578
finals	-9579
▁fatal	-9580
▁unp	-9581
▁Region	-9582
▁(196	-9583
▁musicians	-9584
rators	-9585
▁transmission	-9586
nex	-9587
▁Gabri	-9588
▁coup	-9589
General	-9590
▁mechanism	-9591
▁unlike	-9592
▁girlfriend	-9593
▁composition	-9594
▁Chancellor	-9595
▁Charlie	-9596
▁existed	-9597
▁Tar	-9598
▁1919	-9599
▁stolen	-9600
▁realized	-9601
▁Associated	-9602
▁traged	-9603
▁Bart	-9604
▁crossed	-9605
▁hug	-9606
▁thrown	-9607
▁eru	-9608
▁cm	-9609
▁terrible	-9610
▁admit	-9611
▁Secret	-9612
▁counterpart	-9613
Sc	-9614
▁fake	-9615
34	-9616
acent	-9617
▁Sel	-9618
onsin	-9619
▁unve	-9620
▁noticed	-9621
prof	-9622
talion	-9623
▁facts	-9624
alog	-9625
▁mac	-9626
▁programmes	-9627
▁winds	-9628
rows	-9629
oria	-9630
▁print	-9631
▁Carib	-9632
▁Dick	-9633
▁1985	-9634
▁moon	-9635
▁breast	-9636
▁rating	-9637
▁entrepren	-9638
▁fees	-9639
▁gene	-9640
▁translation	-9641
▁IT	-9642
▁rang	-9643
▁generated	-9644
▁weigh	-9645
▁Sem	-9646
▁masks	-9647
▁neuro	-9648
▁tip	-9649
▁caps	-9650
heastern	-9651
reement	-9652
▁interviews	-9653
▁Treasury	-9654
isconsin	-9655
OT	-9656
▁Move	-9657
▁trials	-9658
igation	-9659
ls	-9660
▁junior	-9661
▁audio	-9662
ultane	-9663
▁predicted	-9664
▁demanded	-9665
just	-9666
ygen	-9667
▁Full	-9668
papers	-9669
pha	-9670
▁courses	-9671
▁memories	-9672
lock	-9673
▁dying	-9674
uating	-9675
mb	-9676
▁affili	-9677
▁manif	-9678
▁developments	-9679
▁Margaret	-9680
▁threw	-9681
mod	-9682
▁Iron	-9683
▁anxiety	-9684
ippi	-9685
agger	-9686
▁Mari	-9687
▁Wright	-9688
▁outstanding	-9689
▁acted	-9690
▁Nar	-9691
ials	-9692
▁occasionally	-9693
▁naval	-9694
▁drain	-9695
▁historian	-9696
▁Dra	-9697
▁maintenance	-9698
▁vocals	-9699
anner	-9700
▁fighters	-9701
▁nickn	-9702
▁NS	-9703
▁experi	-9704
▁Obs	-9705
▁counts	-9706
▁lucky	-9707
▁Action	-9708
▁ranks	-9709
▁gross	-9710
rot	-9711
▁Furthermore	-9712
aware	-9713
roc	-9714
▁suggesting	-9715
▁Cre	-9716
▁Amend	-9717
▁Christopher	-9718
▁Fab	-9719
dale	-9720
estone	-9721
▁exports	-9722
▁obser	-9723
istent	-9724
86	-9725
▁Reuters	-9726
ingham	-9727
OU	-9728
▁graduate	-9729
▁innoc	-9730
▁Bangl	-9731
▁frequent	-9732
otes	-9733
▁Roe	-9734
▁sorry	-9735
▁64	-9736
▁EC	-9737
▁forever	-9738
▁Wisconsin	-9739
▁Mitchell	-9740
▁Memorial	-9741
▁Stewart	-9742
1),	-9743
yer	-9744
▁funny	-9745
▁roots	-9746
▁equally	-9747
har	-9748
▁approached	-9749
▁unemployment	-9750
▁dated	-9751
▁Athlet	-9752
▁circle	-9753
▁exha	-9754
.”	-9755
asted	-9756
▁GP	-9757
ucks	-9758
▁depression	-9759
▁unw	-9760
▁Hawai	-9761
▁Maur	-9762
▁questioned	-9763
▁Sid	-9764
▁calcul	-9765
▁defended	-9766
▁regardless	-9767
cut	-9768
▁dominant	-9769
▁bab	-9770
:0	-9771
▁Py	-9772
cular	-9773
rowing	-9774
▁rivals	-9775
▁continent	-9776
▁Roger	-9777
geon	-9778
fare	-9779
▁demonstrated	-9780
▁unions	-9781
▁Pap	-9782
owa	-9783
▁Fif	-9784
ificial	-9785
orate	-9786
▁chaos	-9787
EFA	-9788
▁Gray	-9789
▁Article	-9790
▁cameras	-9791
▁Yug	-9792
▁soldier	-9793
eeper	-9794
hyth	-9795
front	-9796
▁chapter	-9797
▁pleased	-9798
▁everywhere	-9799
aping	-9800
▁Serge	-9801
▁whereas	-9802
▁cod	-9803
▁earthqu	-9804
▁WW	-9805
▁anger	-9806
▁advised	-9807
▁46	-9808
winning	-9809
▁lunch	-9810
▁Jonathan	-9811
def	-9812
▁equipped	-9813
▁shoulder	-9814
▁Nation	-9815
▁gate	-9816
▁Mult	-9817
▁Building	-9818
▁Brussels	-9819
▁Knight	-9820
▁algorith	-9821
▁stocks	-9822
▁unexpected	-9823
OM	-9824
▁Youth	-9825
hu	-9826
▁flows	-9827
rings	-9828
▁gains	-9829
aments	-9830
▁ages	-9831
▁wooden	-9832
▁Charlotte	-9833
▁improvement	-9834
▁wealthy	-9835
▁integrated	-9836
ocese	-9837
▁Garden	-9838
uce	-9839
▁Alabama	-9840
▁Mississ	-9841
eded	-9842
▁exclusive	-9843
▁grateful	-9844
▁Rah	-9845
▁romantic	-9846
32	-9847
▁Fel	-9848
ivia	-9849
▁Album	-9850
chi	-9851
▁ST	-9852
▁femin	-9853
▁Catal	-9854
▁memorial	-9855
▁explore	-9856
▁filming	-9857
▁Fried	-9858
umin	-9859
▁Hunter	-9860
▁lists	-9861
ictions	-9862
▁sustained	-9863
▁(£	-9864
▁Bruce	-9865
▁Moreover	-9866
▁murdered	-9867
igs	-9868
▁Tesla	-9869
▁steam	-9870
minister	-9871
▁(197	-9872
▁Fac	-9873
▁Indiana	-9874
▁striker	-9875
▁twelve	-9876
rons	-9877
verage	-9878
▁restore	-9879
▁loud	-9880
▁Magazine	-9881
annon	-9882
▁depends	-9883
▁Muslims	-9884
▁reass	-9885
▁Bron	-9886
▁Nag	-9887
▁stem	-9888
▁genetic	-9889
▁Metropolitan	-9890
▁Belgian	-9891
▁Cabinet	-9892
being	-9893
▁Welsh	-9894
▁grade	-9895
▁earnings	-9896
▁accessible	-9897
▁reop	-9898
including	-9899
▁beaten	-9900
nie	-9901
▁categories	-9902
▁reporter	-9903
isting	-9904
low	-9905
▁horses	-9906
▁terrorist	-9907
▁Legisl	-9908
▁fold	-9909
▁Without	-9910
bat	-9911
made	-9912
bow	-9913
ogg	-9914
▁reconst	-9915
hattan	-9916
▁Carter	-9917
▁1979	-9918
▁Hope	-9919
▁anymore	-9920
icts	-9921
▁NBC	-9922
▁license	-9923
imens	-9924
▁striking	-9925
▁inspiration	-9926
▁rivers	-9927
▁Chamber	-9928
▁patterns	-9929
▁Ult	-9930
▁pink	-9931
▁artistic	-9932
▁iPhone	-9933
▁isolated	-9934
ailand	-9935
encer	-9936
isp	-9937
▁kidn	-9938
▁camps	-9939
▁Cold	-9940
▁Naval	-9941
aved	-9942
▁comparison	-9943
▁Access	-9944
mph	-9945
zo	-9946
▁lessons	-9947
▁Perhaps	-9948
▁tears	-9949
▁underground	-9950
okovic	-9951
ovich	-9952
sa	-9953
▁Sad	-9954
8%	-9955
▁2,000	-9956
▁citizen	-9957
▁answers	-9958
▁Price	-9959
▁palace	-9960
▁females	-9961
▁inquiry	-9962
▁Seven	-9963
▁wage	-9964
▁2000.	-9965
▁Bes	-9966
▁republic	-9967
roit	-9968
▁mood	-9969
▁confront	-9970
isk	-9971
▁affordable	-9972
▁181	-9973
▁spiritual	-9974
olph	-9975
rets	-9976
▁nobody	-9977
▁Hend	-9978
angel	-9979
▁Lion	-9980
▁hell	-9981
orable	-9982
thes	-9983
▁Television	-9984
▁Ve	-9985
zing	-9986
▁tiss	-9987
▁integr	-9988
wall	-9989
▁assemb	-9990
▁Clinton	-9991
owski	-9992
▁inev	-9993
▁synd	-9994
▁Wa	-9995
▁cock	-9996
▁Missouri	-9997
▁ambassador	-9998
unes	-9999
▁reverse	-10000
▁comprehensive	-10001
▁ske	-10002
▁rely	-10003
▁Father	-10004
▁param	-10005
▁recruit	-10006
▁AI	-10007
▁Gill	-10008
▁layer	-10009
▁Bright	-10010
▁equity	-10011
▁commem	-10012
▁demanding	-10013
▁handling	-10014
race	-10015
▁Actor	-10016
▁touchdown	-10017
▁Munich	-10018
ilee	-10019
▁painter	-10020
▁turb	-10021
▁Djokovic	-10022
backs	-10023
▁retreat	-10024
▁Chart	-10025
beat	-10026
▁competitions	-10027
▁Soon	-10028
▁Rain	-10029
▁Sometimes	-10030
▁affair	-10031
▁continu	-10032
▁abst	-10033
▁je	-10034
itched	-10035
▁Steven	-10036
▁archae	-10037
Donald	-10038
▁Bulgaria	-10039
▁Soph	-10040
▁ere	-10041
▁Manhattan	-10042
eries	-10043
▁requirement	-10044
▁wages	-10045
▁diagnosed	-10046
▁Archived	-10047
▁100,000	-10048
▁Kab	-10049
▁loves	-10050
cop	-10051
▁Rout	-10052
asp	-10053
▁disch	-10054
▁Squad	-10055
astery	-10056
▁progressive	-10057
▁Caribbean	-10058
89	-10059
▁Fu	-10060
▁creates	-10061
▁complaints	-10062
acon	-10063
▁Start	-10064
▁prompted	-10065
▁liked	-10066
▁remarkable	-10067
uerto	-10068
▁clar	-10069
▁Unfortunately	-10070
rones	-10071
eps	-10072
▁tropical	-10073
▁Plus	-10074
▁adaptation	-10075
▁‘	-10076
held	-10077
▁Croatia	-10078
▁Orthodox	-10079
▁Dyn	-10080
▁kiss	-10081
RS	-10082
▁sessions	-10083
▁elite	-10084
urities	-10085
▁Cele	-10086
▁monkey	-10087
EA	-10088
ahn	-10089
▁Cou	-10090
▁Robinson	-10091
▁Ald	-10092
▁jazz	-10093
▁monument	-10094
page	-10095
▁Freedom	-10096
▁choices	-10097
nal	-10098
▁valley	-10099
▁Tower	-10100
▁cousin	-10101
▁Newcastle	-10102
▁chest	-10103
reens	-10104
▁teeth	-10105
▁desperate	-10106
▁resignation	-10107
▁unprecedented	-10108
zed	-10109
ansk	-10110
▁Pear	-10111
▁fabric	-10112
ido	-10113
ethe	-10114
▁burned	-10115
▁nomine	-10116
▁carefully	-10117
▁1900	-10118
▁800	-10119
▁relatives	-10120
▁1998,	-10121
▁stretch	-10122
▁vessel	-10123
▁barely	-10124
▁1983	-10125
onder	-10126
▁Jose	-10127
▁boats	-10128
gic	-10129
▁hadn	-10130
▁tens	-10131
▁input	-10132
▁disorder	-10133
▁Carlos	-10134
31	-10135
▁Samuel	-10136
▁margin	-10137
▁qualifying	-10138
▁Row	-10139
ottenham	-10140
▁Pant	-10141
▁Morocco	-10142
▁Airl	-10143
▁peaceful	-10144
▁Bond	-10145
▁smoke	-10146
▁Regional	-10147
▁economies	-10148
dri	-10149
omic	-10150
▁item	-10151
alties	-10152
▁evil	-10153
▁Yugoslav	-10154
▁Thailand	-10155
▁jurisd	-10156
▁tone	-10157
▁Bou	-10158
orph	-10159
▁conservation	-10160
iah	-10161
cia	-10162
▁2002.	-10163
▁Agricult	-10164
▁investigations	-10165
▁fier	-10166
FT	-10167
▁13.	-10168
▁Sign	-10169
▁butter	-10170
▁preferred	-10171
▁47	-10172
ouses	-10173
ivan	-10174
isive	-10175
▁tensions	-10176
rary	-10177
▁GDP	-10178
▁perpet	-10179
▁Ted	-10180
▁strange	-10181
▁duo	-10182
▁Mississippi	-10183
▁nerv	-10184
▁UEFA	-10185
▁Justin	-10186
▁resolve	-10187
▁amongst	-10188
▁adviser	-10189
▁Jimmy	-10190
dem	-10191
▁simultane	-10192
▁Kard	-10193
▁humanity	-10194
▁Crist	-10195
▁conversations	-10196
▁Hell	-10197
▁unsuccess	-10198
▁gathering	-10199
▁biological	-10200
lessly	-10201
reck	-10202
▁merely	-10203
▁forests	-10204
▁Creek	-10205
▁Highway	-10206
▁Finnish	-10207
▁accurate	-10208
rock	-10209
▁attitude	-10210
▁ML	-10211
nia	-10212
▁1973	-10213
▁trigger	-10214
ounce	-10215
▁somewhere	-10216
▁Natural	-10217
▁badly	-10218
▁arranged	-10219
▁directors	-10220
▁traveled	-10221
▁shortage	-10222
App	-10223
▁Craig	-10224
▁intens	-10225
▁shortages	-10226
▁Kit	-10227
▁nationwide	-10228
▁Rw	-10229
▁Johnny	-10230
▁Aaron	-10231
▁Gary	-10232
▁heating	-10233
▁overnight	-10234
▁novels	-10235
▁racism	-10236
eling	-10237
)".	-10238
▁noting	-10239
▁statistics	-10240
▁publishing	-10241
▁jew	-10242
▁1982	-10243
▁beer	-10244
▁Senior	-10245
▁NY	-10246
▁compensation	-10247
▁Cameron	-10248
▁Hop	-10249
▁versus	-10250
▁concentration	-10251
gender	-10252
▁2001.	-10253
▁shocked	-10254
▁Operation	-10255
▁Rams	-10256
▁Spir	-10257
▁ramp	-10258
▁Woman	-10259
▁sisters	-10260
▁charging	-10261
▁counsel	-10262
▁overwhelming	-10263
aku	-10264
▁testimony	-10265
▁divorce	-10266
▁routine	-10267
dest	-10268
▁mortgage	-10269
▁Rishi	-10270
▁exclusively	-10271
▁mad	-10272
pled	-10273
▁annex	-10274
▁destination	-10275
EP	-10276
▁glob	-10277
▁Medicine	-10278
ointing	-10279
▁speakers	-10280
▁pin	-10281
otton	-10282
▁lifted	-10283
▁Case	-10284
▁Germans	-10285
▁lifetime	-10286
▁Photo	-10287
▁Representatives	-10288
▁Brooklyn	-10289
▁dism	-10290
▁coc	-10291
▁Emma	-10292
▁retained	-10293
--	-10294
lining	-10295
▁kingdom	-10296
▁welfare	-10297
ictured	-10298
illo	-10299
▁finger	-10300
▁execution	-10301
arged	-10302
▁Motor	-10303
▁Medal	-10304
▁funded	-10305
▁bin	-10306
▁momentum	-10307
▁hub	-10308
▁stressed	-10309
▁Cass	-10310
▁experiencing	-10311
▁consisting	-10312
▁rises	-10313
▁toxic	-10314
▁adapted	-10315
▁whilst	-10316
bishop	-10317
orge	-10318
ocolate	-10319
▁promises	-10320
onnell	-10321
▁Lawrence	-10322
▁urgent	-10323
▁shoes	-10324
ghai	-10325
▁prosper	-10326
▁pollution	-10327
▁Ark	-10328
▁Puerto	-10329
▁cultiv	-10330
▁descend	-10331
▁component	-10332
▁shelter	-10333
itis	-10334
Tr	-10335
urse	-10336
▁qualify	-10337
▁statue	-10338
arrass	-10339
bes	-10340
▁soccer	-10341
▁touc	-10342
iki	-10343
▁condemned	-10344
ationally	-10345
▁AL	-10346
▁Maryland	-10347
▁preparation	-10348
▁associate	-10349
▁Hom	-10350
▁grandmother	-10351
▁focusing	-10352
▁proven	-10353
▁2:	-10354
▁Asked	-10355
▁universal	-10356
ás	-10357
▁inches	-10358
▁connections	-10359
▁forcing	-10360
▁Patri	-10361
istant	-10362
▁introduce	-10363
▁reflected	-10364
}\	-10365
▁Syrian	-10366
umar	-10367
▁explicit	-10368
anim	-10369
▁Kentucky	-10370
ación	-10371
▁readers	-10372
▁Political	-10373
▁mart	-10374
iability	-10375
▁Farm	-10376
▁merged	-10377
▁golden	-10378
▁Lad	-10379
▁Tottenham	-10380
▁banking	-10381
▁requests	-10382
▁calendar	-10383
▁texts	-10384
osystem	-10385
▁160	-10386
▁Gon	-10387
▁volunteers	-10388
▁listening	-10389
▁Macron	-10390
▁Hunt	-10391
▁actively	-10392
coin	-10393
▁broader	-10394
▁explosion	-10395
▁Works	-10396
▁52	-10397
zes	-10398
56	-10399
▁Morning	-10400
Ind	-10401
▁passage	-10402
sor	-10403
▁Given	-10404
▁Tig	-10405
▁Aren	-10406
▁Engineering	-10407
▁traff	-10408
▁Oil	-10409
pay	-10410
▁integration	-10411
▁Dean	-10412
▁privacy	-10413
▁£2	-10414
▁ISBN	-10415
▁bottle	-10416
icing	-10417
tes	-10418
rine	-10419
▁Standard	-10420
▁1976	-10421
ignment	-10422
sung	-10423
EM	-10424
caster	-10425
▁Johann	-10426
▁provisions	-10427
▁lin	-10428
▁physically	-10429
▁dual	-10430
lon	-10431
▁boyfriend	-10432
▁impressed	-10433
▁Marie	-10434
▁meal	-10435
▁colors	-10436
BO	-10437
▁Broadway	-10438
asa	-10439
▁attributed	-10440
▁dancing	-10441
▁Metro	-10442
▁alarm	-10443
▁devastating	-10444
▁expedition	-10445
▁integrity	-10446
▁grid	-10447
▁rapport	-10448
mund	-10449
ults	-10450
▁diver	-10451
rank	-10452
▁mos	-10453
▁spots	-10454
▁infected	-10455
▁flash	-10456
.""	-10457
▁hockey	-10458
▁Native	-10459
▁overcome	-10460
▁terrorism	-10461
▁survival	-10462
▁flooding	-10463
These	-10464
▁missions	-10465
lahoma	-10466
With	-10467
▁Detroit	-10468
▁Ziri	-10469
▁divisions	-10470
▁CA	-10471
▁Temple	-10472
▁electron	-10473
▁Bangladesh	-10474
▁Muham	-10475
▁hung	-10476
illance	-10477
▁description	-10478
HO	-10479
▁tourists	-10480
▁Had	-10481
▁1981	-10482
ensed	-10483
▁Duchess	-10484
▁relating	-10485
pur	-10486
▁fantastic	-10487
Ne	-10488
iously	-10489
vised	-10490
▁burning	-10491
▁deadly	-10492
▁grandfather	-10493
▁flew	-10494
▁1972	-10495
▁kilometers	-10496
▁naturally	-10497
▁Aber	-10498
strong	-10499
9%	-10500
ropri	-10501
▁travelled	-10502
▁Baron	-10503
▁fict	-10504
▁acres	-10505
▁CP	-10506
▁Tu	-10507
▁crazy	-10508
▁shirt	-10509
▁emotion	-10510
▁14.	-10511
▁friendship	-10512
▁medieval	-10513
arest	-10514
▁Small	-10515
who	-10516
▁Hind	-10517
▁Regiment	-10518
▁rice	-10519
clop	-10520
▁Heritage	-10521
▁boundary	-10522
commun	-10523
▁clash	-10524
III	-10525
▁Arn	-10526
iliation	-10527
▁branches	-10528
▁generate	-10529
▁outdoor	-10530
▁Chem	-10531
▁credited	-10532
▁Leader	-10533
mus	-10534
▁Walter	-10535
▁temporarily	-10536
angle	-10537
asha	-10538
▁shout	-10539
▁dressed	-10540
idal	-10541
▁operator	-10542
▁chicken	-10543
▁Cho	-10544
▁produces	-10545
▁encouraging	-10546
▁Nelson	-10547
eree	-10548
▁Airlines	-10549
▁Diana	-10550
▁Pelosi	-10551
▁aspir	-10552
via	-10553
▁worn	-10554
log	-10555
▁courage	-10556
▁ski	-10557
▁1978	-10558
▁AS	-10559
▁uncle	-10560
▁tragedy	-10561
oded	-10562
▁hip	-10563
▁petition	-10564
▁organic	-10565
forced	-10566
Ex	-10567
oard	-10568
▁riot	-10569
▁professionals	-10570
▁Eston	-10571
▁ladies	-10572
▁1974	-10573
itime	-10574
asting	-10575
▁reserv	-10576
▁difficulty	-10577
▁Kardash	-10578
▁removal	-10579
▁oxygen	-10580
▁suitable	-10581
▁Ll	-10582
May	-10583
▁structural	-10584
▁inject	-10585
▁providers	-10586
▁targeting	-10587
Mar	-10588
pox	-10589
▁Junior	-10590
tar	-10591
▁seemingly	-10592
arency	-10593
People	-10594
▁delays	-10595
omed	-10596
▁render	-10597
▁perfectly	-10598
▁Protection	-10599
▁decent	-10600
▁blank	-10601
▁1997,	-10602
▁Cruz	-10603
▁balls	-10604
▁breath	-10605
▁politically	-10606
▁median	-10607
▁Thanks	-10608
▁Init	-10609
▁vig	-10610
▁visa	-10611
▁Maybe	-10612
▁displayed	-10613
▁Sac	-10614
▁iconic	-10615
59	-10616
▁jet	-10617
▁detained	-10618
▁Villa	-10619
▁theories	-10620
▁subur	-10621
▁Mick	-10622
ledon	-10623
▁arguments	-10624
▁firing	-10625
▁photographs	-10626
▁Sudan	-10627
▁à	-10628
▁NE	-10629
▁describing	-10630
▁sits	-10631
▁$10	-10632
▁Campbell	-10633
▁Jamie	-10634
▁restricted	-10635
▁electrical	-10636
▁antib	-10637
weet	-10638
▁carries	-10639
▁initiatives	-10640
▁Shanghai	-10641
▁weaken	-10642
▁convention	-10643
▁Hann	-10644
▁Oklahoma	-10645
▁Nort	-10646
▁bishop	-10647
▁poison	-10648
otype	-10649
▁recommendations	-10650
▁incent	-10651
▁submar	-10652
▁Fame	-10653
uru	-10654
▁Nigerian	-10655
▁partially	-10656
▁hyper	-10657
▁premiered	-10658
3),	-10659
▁Maced	-10660
▁Place	-10661
▁$4	-10662
▁Expl	-10663
▁DeS	-10664
celand	-10665
actions	-10666
▁Hamp	-10667
▁disappointed	-10668
wer	-10669
▁1975	-10670
▁specialist	-10671
▁till	-10672
▁threatening	-10673
▁Leeds	-10674
▁proportion	-10675
▁Lock	-10676
▁Neil	-10677
▁Person	-10678
▁voices	-10679
▁replacing	-10680
world	-10681
▁mobil	-10682
▁Hud	-10683
▁Morris	-10684
rams	-10685
▁debuted	-10686
▁1968	-10687
▁Cathedral	-10688
information	-10689
▁wars	-10690
bits	-10691
▁Supp	-10692
▁surviving	-10693
▁medals	-10694
▁gest	-10695
▁pour	-10696
▁anybody	-10697
▁Fall	-10698
▁Merc	-10699
▁Ivan	-10700
700	-10701
▁flour	-10702
▁Amendment	-10703
▁possess	-10704
▁mild	-10705
▁orbit	-10706
len	-10707
▁Pad	-10708
▁Concer	-10709
▁locked	-10710
▁immune	-10711
▁mile	-10712
▁expanding	-10713
▁54	-10714
▁Sean	-10715
▁retain	-10716
▁downtown	-10717
▁15.	-10718
▁Sony	-10719
▁Chall	-10720
▁deemed	-10721
▁establishing	-10722
▁fires	-10723
▁highway	-10724
ibet	-10725
▁SP	-10726
▁forming	-10727
▁shore	-10728
▁goalk	-10729
▁Si	-10730
▁consideration	-10731
quis	-10732
▁Living	-10733
▁flower	-10734
ctive	-10735
▁ninth	-10736
▁bail	-10737
▁Gallery	-10738
▁eliminated	-10739
▁coinc	-10740
▁reserves	-10741
▁Liter	-10742
▁domain	-10743
▁finals	-10744
▁Alb	-10745
etsk	-10746
▁migration	-10747
▁uncertainty	-10748
lick	-10749
▁marine	-10750
▁hunting	-10751
▁Know	-10752
▁Marvel	-10753
▁erect	-10754
ums	-10755
▁frequency	-10756
▁sail	-10757
▁phrase	-10758
▁maintaining	-10759
▁teenager	-10760
imbledon	-10761
▁adoption	-10762
▁1977	-10763
attered	-10764
▁objectives	-10765
piece	-10766
▁Modi	-10767
▁250	-10768
ubilee	-10769
▁Salv	-10770
▁Oliver	-10771
▁criteria	-10772
▁dynamic	-10773
▁survivors	-10774
▁Have	-10775
▁Azerbaijan	-10776
inals	-10777
▁Lieutenant	-10778
avan	-10779
▁insect	-10780
▁Opera	-10781
▁root	-10782
▁Cuba	-10783
▁mainstream	-10784
▁CC	-10785
▁dynasty	-10786
▁owns	-10787
▁Frederick	-10788
▁everyday	-10789
–2	-10790
▁182	-10791
▁embarrass	-10792
occ	-10793
▁stunning	-10794
aman	-10795
▁counties	-10796
▁adequ	-10797
arthy	-10798
oil	-10799
▁swing	-10800
▁Arabic	-10801
▁trigg	-10802
▁guidelines	-10803
accept	-10804
▁Dh	-10805
▁tasks	-10806
▁Warner	-10807
▁dust	-10808
én	-10809
idges	-10810
inely	-10811
phones	-10812
oda	-10813
▁scientist	-10814
▁manip	-10815
▁Eag	-10816
▁reads	-10817
▁Municip	-10818
▁imports	-10819
▁artificial	-10820
▁Dom	-10821
ti	-10822
▁exchang	-10823
▁Priv	-10824
▁colleague	-10825
▁ratio	-10826
uez	-10827
eenth	-10828
▁tourist	-10829
▁Gand	-10830
▁farming	-10831
▁ports	-10832
▁Support	-10833
cient	-10834
▁salary	-10835
▁analysts	-10836
▁Cos	-10837
▁Gas	-10838
▁silence	-10839
nik	-10840
▁luck	-10841
yes	-10842
▁interven	-10843
▁circuit	-10844
▁innovative	-10845
▁improvements	-10846
▁SS	-10847
▁MS	-10848
will	-10849
▁Lag	-10850
▁assists	-10851
list	-10852
▁Mort	-10853
▁Online	-10854
▁premiere	-10855
German	-10856
▁approaches	-10857
▁presents	-10858
▁entertain	-10859
acts	-10860
▁administer	-10861
ohn	-10862
▁congrat	-10863
Star	-10864
▁meanwhile	-10865
▁Mission	-10866
▁ambit	-10867
▁Luis	-10868
▁3:	-10869
▁Ric	-10870
▁anch	-10871
▁1.5	-10872
▁shadow	-10873
ught	-10874
//	-10875
▁Finance	-10876
▁Comple	-10877
▁exempt	-10878
▁mutual	-10879
▁Wimbledon	-10880
▁coat	-10881
▁Billy	-10882
▁Baker	-10883
▁fate	-10884
▁criticised	-10885
▁Laura	-10886
▁boundaries	-10887
▁procl	-10888
▁Alaska	-10889
elect	-10890
▁modified	-10891
▁bonus	-10892
▁conventional	-10893
▁interpre	-10894
▁Hitler	-10895
icians	-10896
▁16.	-10897
orf	-10898
▁decides	-10899
▁volumes	-10900
▁Currently	-10901
▁legally	-10902
▁enemies	-10903
":	-10904
▁Kr	-10905
bus	-10906
gence	-10907
▁Ferr	-10908
▁confron	-10909
▁Nancy	-10910
▁plain	-10911
uscript	-10912
▁Kra	-10913
▁thri	-10914
ellers	-10915
▁inequ	-10916
asant	-10917
acles	-10918
▁12-	-10919
▁venture	-10920
▁Books	-10921
eff	-10922
▁arrives	-10923
miral	-10924
▁Pas	-10925
▁raw	-10926
▁Whether	-10927
▁hydrogen	-10928
▁Iceland	-10929
▁strategies	-10930
▁1945	-10931
▁employers	-10932
▁sparked	-10933
▁Formula	-10934
▁Ward	-10935
▁Record	-10936
obi	-10937
▁1996,	-10938
▁Downing	-10939
***	-10940
▁bold	-10941
▁Psych	-10942
▁Wade	-10943
akia	-10944
▁jumped	-10945
myr	-10946
▁moderate	-10947
ycle	-10948
▁upgr	-10949
▁brutal	-10950
▁blamed	-10951
▁coaches	-10952
▁las	-10953
▁boxes	-10954
▁completion	-10955
▁collapsed	-10956
▁Kenya	-10957
▁centres	-10958
▁managers	-10959
bie	-10960
▁Muhammad	-10961
▁releg	-10962
▁twin	-10963
▁genre	-10964
▁Page	-10965
wear	-10966
▁56	-10967
▁Stu	-10968
▁Bed	-10969
arms	-10970
▁contacted	-10971
▁highlighted	-10972
▁intim	-10973
▁newspapers	-10974
avalry	-10975
▁cow	-10976
▁Fal	-10977
▁fastest	-10978
▁realize	-10979
▁capabilities	-10980
atoes	-10981
▁Lux	-10982
▁Industry	-10983
▁cable	-10984
▁stops	-10985
▁therm	-10986
orus	-10987
▁(16	-10988
▁spell	-10989
wed	-10990
gie	-10991
omi	-10992
▁superior	-10993
▁virtually	-10994
▁nervous	-10995
▁portfol	-10996
▁dependent	-10997
▁Ont	-10998
-12	-10999
▁benefic	-11000
▁styles	-11001
▁Lang	-11002
▁lung	-11003
▁poem	-11004
▁triple	-11005
▁Hindu	-11006
▁thorough	-11007
▁grave	-11008
▁Together	-11009
▁Speaker	-11010
▁mistakes	-11011
▁reliable	-11012
▁dreams	-11013
▁expecting	-11014
▁Throughout	-11015
▁fame	-11016
stage	-11017
▁Depp	-11018
▁Rugby	-11019
▁enhance	-11020
▁delivering	-11021
mel	-11022
▁reasonable	-11023
▁Evans	-11024
▁auction	-11025
▁proceedings	-11026
iffs	-11027
▁nose	-11028
▁recre	-11029
▁indicates	-11030
cific	-11031
▁permit	-11032
▁mail	-11033
▁escaped	-11034
▁$100	-11035
▁Got	-11036
▁Amy	-11037
▁Parker	-11038
ucker	-11039
▁bombs	-11040
▁traveling	-11041
▁themes	-11042
▁Nevada	-11043
▁governance	-11044
▁devoted	-11045
achment	-11046
▁Mountains	-11047
▁confused	-11048
▁traditionally	-11049
▁1969	-11050
that	-11051
▁charts	-11052
sized	-11053
▁printed	-11054
▁postp	-11055
LE	-11056
▁characteristics	-11057
▁Shortly	-11058
▁racist	-11059
▁compromise	-11060
▁portrayed	-11061
▁renewed	-11062
▁sample	-11063
▁measured	-11064
▁automatically	-11065
▁Studios	-11066
▁wanting	-11067
87	-11068
▁estimate	-11069
holm	-11070
▁wings	-11071
▁ingredients	-11072
▁elderly	-11073
▁drinks	-11074
ipper	-11075
apolis	-11076
▁nights	-11077
▁exclud	-11078
▁participating	-11079
▁Oak	-11080
▁Aj	-11081
▁prest	-11082
▁Sussex	-11083
▁warrant	-11084
istical	-11085
riors	-11086
▁impacts	-11087
▁topic	-11088
▁Jeremy	-11089
▁Leices	-11090
▁ambitious	-11091
▁Blues	-11092
▁sporting	-11093
▁holidays	-11094
▁Which	-11095
ensively	-11096
ín	-11097
▁educated	-11098
▁festiv	-11099
▁Territ	-11100
▁governing	-11101
▁Mong	-11102
▁1967	-11103
▁freed	-11104
▁alter	-11105
▁Horn	-11106
▁Galaxy	-11107
▁acquisition	-11108
▁20-	-11109
▁Luke	-11110
▁1999.	-11111
▁authen	-11112
▁seeks	-11113
▁releases	-11114
▁burden	-11115
▁gear	-11116
▁awa	-11117
▁ecosystem	-11118
▁isolation	-11119
aco	-11120
▁torn	-11121
▁operators	-11122
▁audiences	-11123
▁Ern	-11124
▁177	-11125
▁reck	-11126
▁McCarthy	-11127
▁Hus	-11128
▁chef	-11129
▁Credit	-11130
▁casualties	-11131
▁divers	-11132
osaur	-11133
▁checks	-11134
▁regist	-11135
▁suspension	-11136
two	-11137
▁span	-11138
▁transformation	-11139
▁Om	-11140
comes	-11141
lee	-11142
▁focuses	-11143
1).	-11144
▁desk	-11145
abad	-11146
isely	-11147
▁Orchestra	-11148
▁phones	-11149
▁rebounds	-11150
▁amendment	-11151
▁donated	-11152
▁Phoen	-11153
▁Toy	-11154
▁traditions	-11155
▁deserve	-11156
ultan	-11157
▁witnesses	-11158
▁provinces	-11159
▁Mack	-11160
bul	-11161
▁regulatory	-11162
▁regret	-11163
▁Electric	-11164
▁Deb	-11165
▁Cond	-11166
▁amendments	-11167
ocur	-11168
veland	-11169
▁preserved	-11170
▁tired	-11171
▁peoples	-11172
▁Safety	-11173
avel	-11174
rable	-11175
▁Movement	-11176
▁Pierre	-11177
▁View	-11178
▁alert	-11179
://	-11180
▁manufacturers	-11181
▁merc	-11182
▁Boys	-11183
▁coaching	-11184
▁51	-11185
▁Late	-11186
▁prevented	-11187
▁Lanc	-11188
▁outer	-11189
Me	-11190
rained	-11191
▁northeast	-11192
▁promising	-11193
▁Serbian	-11194
▁bags	-11195
▁Louisiana	-11196
▁resil	-11197
ported	-11198
▁chronic	-11199
▁Vers	-11200
▁investigators	-11201
▁Mom	-11202
atto	-11203
▁Girls	-11204
▁Mi	-11205
▁É	-11206
▁cinema	-11207
▁recept	-11208
NC	-11209
▁shame	-11210
▁Quest	-11211
▁joke	-11212
▁thirty	-11213
▁Nash	-11214
▁Exchange	-11215
▁Protest	-11216
ds	-11217
bas	-11218
▁consistently	-11219
▁equality	-11220
▁30-	-11221
bling	-11222
▁(0	-11223
▁Code	-11224
uis	-11225
▁Lebanon	-11226
▁Byz	-11227
▁congressional	-11228
▁Perform	-11229
▁Guy	-11230
ources	-11231
▁inspect	-11232
▁tips	-11233
▁ID	-11234
▁powered	-11235
regation	-11236
eters	-11237
inea	-11238
▁SNP	-11239
▁predomin	-11240
▁challenged	-11241
▁phenomenon	-11242
▁conce	-11243
▁Utah	-11244
▁Colombia	-11245
▁Jun	-11246
▁Alfred	-11247
▁signature	-11248
4),	-11249
ocked	-11250
▁consensus	-11251
▁Christians	-11252
NS	-11253
▁reluct	-11254
▁disappeared	-11255
Station	-11256
▁departments	-11257
▁Century	-11258
garian	-11259
▁volunt	-11260
▁receives	-11261
▁asset	-11262
▁killer	-11263
print	-11264
▁blog	-11265
▁remembered	-11266
▁permitted	-11267
jab	-11268
ados	-11269
opes	-11270
▁scrutin	-11271
▁py	-11272
arents	-11273
▁Cleveland	-11274
▁relie	-11275
anne	-11276
▁disruption	-11277
▁misc	-11278
ulu	-11279
▁ric	-11280
▁Collins	-11281
▁Stanley	-11282
▁directive	-11283
vol	-11284
▁walks	-11285
▁arrangements	-11286
▁cleaning	-11287
▁Oz	-11288
▁drought	-11289
▁hardly	-11290
▁Wayne	-11291
▁careful	-11292
▁explanation	-11293
▁DeSantis	-11294
▁Conn	-11295
▁imperial	-11296
onian	-11297
▁repeat	-11298
oche	-11299
trans	-11300
oga	-11301
▁skill	-11302
▁Catherine	-11303
ieg	-11304
▁rit	-11305
▁Tob	-11306
▁Buy	-11307
▁wishes	-11308
-200	-11309
▁Commander	-11310
▁disappear	-11311
Euro	-11312
▁buyers	-11313
▁Nam	-11314
▁170	-11315
▁planes	-11316
sterdam	-11317
▁foods	-11318
▁closest	-11319
▁witnessed	-11320
▁pipeline	-11321
▁traded	-11322
▁consolid	-11323
▁Beck	-11324
▁Bible	-11325
▁economics	-11326
▁Masters	-11327
enter	-11328
▁bankrupt	-11329
rose	-11330
▁Contin	-11331
▁shield	-11332
▁extract	-11333
▁conj	-11334
▁males	-11335
rus	-11336
▁silent	-11337
▁Ethiopia	-11338
▁respective	-11339
she	-11340
▁José	-11341
▁fictional	-11342
..."	-11343
ulance	-11344
▁hosting	-11345
▁Ice	-11346
▁Ontario	-11347
▁anth	-11348
▁ranking	-11349
GO	-11350
utives	-11351
wind	-11352
rified	-11353
▁Cust	-11354
▁DJ	-11355
▁1995,	-11356
▁preventing	-11357
▁fitness	-11358
▁lifestyle	-11359
ema	-11360
▁Sax	-11361
▁indu	-11362
▁attendance	-11363
cribed	-11364
government	-11365
42	-11366
▁(10	-11367
▁reflects	-11368
▁gonna	-11369
▁Eventually	-11370
▁physics	-11371
▁Camb	-11372
▁Nav	-11373
stic	-11374
▁density	-11375
▁conflicts	-11376
swire	-11377
▁earning	-11378
▁Joy	-11379
▁evolved	-11380
▁continuous	-11381
▁Cow	-11382
▁significance	-11383
▁(9	-11384
▁grey	-11385
▁6-	-11386
▁soph	-11387
rise	-11388
▁Dance	-11389
idad	-11390
leton	-11391
▁preserve	-11392
▁bone	-11393
▁Marshall	-11394
▁Type	-11395
ictionary	-11396
fam	-11397
▁50%	-11398
▁adjacent	-11399
▁Isa	-11400
▁Buffalo	-11401
▁historically	-11402
▁somehow	-11403
▁sacrif	-11404
▁probe	-11405
▁Make	-11406
istance	-11407
▁Pitts	-11408
▁verd	-11409
▁2-	-11410
▁1971	-11411
▁Flight	-11412
▁700	-11413
icut	-11414
▁quoted	-11415
▁Tunis	-11416
▁Indians	-11417
▁dump	-11418
oven	-11419
▁orange	-11420
▁absent	-11421
egu	-11422
▁diagnosis	-11423
▁Costa	-11424
▁sleeping	-11425
▁raid	-11426
Eng	-11427
▁Romanian	-11428
lie	-11429
▁restoration	-11430
▁enjoying	-11431
eurs	-11432
▁Schol	-11433
▁consent	-11434
▁protocol	-11435
▁empire	-11436
▁confer	-11437
▁recognise	-11438
▁anyway	-11439
▁resource	-11440
▁severely	-11441
▁Aer	-11442
▁northwest	-11443
rah	-11444
▁emotions	-11445
▁Raf	-11446
rimin	-11447
text	-11448
▁Abbey	-11449
ucle	-11450
▁lobby	-11451
▁(7	-11452
▁punishment	-11453
▁dealt	-11454
▁dign	-11455
rition	-11456
▁scope	-11457
▁scholar	-11458
▁gentlemen	-11459
▁Ni	-11460
▁Village	-11461
▁ward	-11462
▁Kay	-11463
▁Ja	-11464
▁treatments	-11465
▁animated	-11466
▁Cher	-11467
▁certific	-11468
DC	-11469
▁Heb	-11470
▁crore	-11471
▁arguing	-11472
▁Watson	-11473
▁carrier	-11474
▁patrol	-11475
▁VI	-11476
▁muscle	-11477
RO	-11478
▁Poly	-11479
▁analyst	-11480
acker	-11481
umbai	-11482
▁Yorks	-11483
▁aggression	-11484
upol	-11485
▁Pent	-11486
▁updates	-11487
▁lovely	-11488
▁Malaysia	-11489
▁ally	-11490
▁signals	-11491
▁patri	-11492
▁landmark	-11493
▁Griff	-11494
▁tribes	-11495
BM	-11496
▁surveillance	-11497
▁Poll	-11498
▁celebrations	-11499
▁Being	-11500
▁bonds	-11501
▁portrait	-11502
RI	-11503
sequently	-11504
▁struggles	-11505
rawn	-11506
▁credits	-11507
▁cleared	-11508
▁ignored	-11509
▁arrangement	-11510
▁vit	-11511
▁kg	-11512
▁bases	-11513
acies	-11514
▁assume	-11515
quarter	-11516
aba	-11517
asket	-11518
▁earthquake	-11519
TI	-11520
▁Climate	-11521
▁odds	-11522
▁rushed	-11523
oves	-11524
▁deeper	-11525
▁requiring	-11526
▁throwing	-11527
▁withdrawal	-11528
▁Prop	-11529
▁patron	-11530
▁tape	-11531
odge	-11532
▁Sche	-11533
▁1994,	-11534
3).	-11535
▁prox	-11536
▁crashed	-11537
▁Aqu	-11538
▁colony	-11539
▁Blood	-11540
▁abort	-11541
▁toile	-11542
ashi	-11543
heart	-11544
DS	-11545
▁BA	-11546
▁topics	-11547
▁Bernard	-11548
▁Nature	-11549
▁celebrity	-11550
▁Delta	-11551
▁Ent	-11552
▁Iowa	-11553
▁railroad	-11554
▁serial	-11555
▁cheese	-11556
▁Trav	-11557
▁shipping	-11558
▁rehab	-11559
▁10%	-11560
there	-11561
iffer	-11562
▁rhyth	-11563
borough	-11564
▁Kil	-11565
▁kicked	-11566
▁indigenous	-11567
▁Volody	-11568
▁Note	-11569
▁monetary	-11570
▁Advent	-11571
▁Jennifer	-11572
▁Voice	-11573
▁Election	-11574
▁Talk	-11575
▁Buch	-11576
▁dialect	-11577
▁judicial	-11578
adows	-11579
▁bombing	-11580
▁nam	-11581
▁parks	-11582
leep	-11583
▁colours	-11584
▁realised	-11585
▁arc	-11586
▁manuscript	-11587
▁tenure	-11588
1}	-11589
▁recall	-11590
▁cargo	-11591
▁Dak	-11592
▁Cart	-11593
▁solidarity	-11594
▁Everyone	-11595
▁Alice	-11596
▁Algeria	-11597
▁1:	-11598
▁Amsterdam	-11599
▁1966	-11600
▁une	-11601
mouth	-11602
▁robust	-11603
▁Mariupol	-11604
cedes	-11605
acular	-11606
▁posit	-11607
▁outfit	-11608
▁transparency	-11609
▁Snow	-11610
▁66	-11611
▁Things	-11612
▁trends	-11613
▁trips	-11614
cca	-11615
▁united	-11616
itudes	-11617
▁desert	-11618
onies	-11619
▁psychological	-11620
▁stance	-11621
▁riding	-11622
▁intellectual	-11623
▁Nevertheless	-11624
▁Infantry	-11625
▁concerts	-11626
▁Representative	-11627
Let	-11628
▁Samsung	-11629
bek	-11630
▁financing	-11631
▁Section	-11632
▁pressures	-11633
▁Krist	-11634
▁Stev	-11635
tha	-11636
prises	-11637
▁internationally	-11638
▁Rachel	-11639
▁priorities	-11640
pin	-11641
ullivan	-11642
▁tunnel	-11643
▁Murphy	-11644
▁trem	-11645
Can	-11646
mid	-11647
essional	-11648
acceptable	-11649
▁reaches	-11650
ixon	-11651
▁LGBTQ	-11652
▁booster	-11653
▁achievement	-11654
▁couples	-11655
▁addressing	-11656
east	-11657
▁mamm	-11658
▁computers	-11659
▁unity	-11660
km	-11661
herson	-11662
▁Pur	-11663
bound	-11664
▁ultimate	-11665
▁Yorkshire	-11666
▁cogn	-11667
▁CH	-11668
▁invaded	-11669
▁collections	-11670
▁praise	-11671
▁Queensland	-11672
MP	-11673
esis	-11674
▁cheaper	-11675
▁cens	-11676
▁1965	-11677
rele	-11678
▁compat	-11679
▁screens	-11680
▁wound	-11681
oints	-11682
▁advocate	-11683
▁disturb	-11684
▁citizenship	-11685
▁Lisa	-11686
▁Arena	-11687
▁goalkeeper	-11688
▁premium	-11689
▁Cant	-11690
▁Round	-11691
bach	-11692
▁workforce	-11693
cell	-11694
▁1992,	-11695
▁Confeder	-11696
▁sheet	-11697
▁meals	-11698
▁LA	-11699
▁Turner	-11700
▁beliefs	-11701
MC	-11702
itting	-11703
utter	-11704
▁Future	-11705
▁steep	-11706
▁Orange	-11707
▁rolling	-11708
▁colleg	-11709
58	-11710
▁usage	-11711
▁Brand	-11712
▁1998.	-11713
▁Rav	-11714
▁reception	-11715
▁Mik	-11716
▁Volodymyr	-11717
▁variants	-11718
▁terminal	-11719
Do	-11720
▁safely	-11721
▁ranging	-11722
▁dose	-11723
▁5,000	-11724
▁Mumbai	-11725
▁babies	-11726
▁Warren	-11727
iler	-11728
▁enact	-11729
▁genuine	-11730
▁Sheriff	-11731
fan	-11732
▁furniture	-11733
▁brig	-11734
▁celebrating	-11735
▁Lay	-11736
–200	-11737
stop	-11738
▁posed	-11739
▁Barry	-11740
▁Marcus	-11741
arre	-11742
▁Stars	-11743
▁Ax	-11744
▁Coal	-11745
▁realise	-11746
eda	-11747
▁Systems	-11748
▁samples	-11749
▁triumph	-11750
imore	-11751
var	-11752
▁Nicholas	-11753
▁Universal	-11754
▁trauma	-11755
ften	-11756
olitical	-11757
▁Ambassador	-11758
▁Morrison	-11759
▁Ug	-11760
▁perceived	-11761
▁Partners	-11762
▁draf	-11763
▁Eve	-11764
▁hotels	-11765
▁simultaneously	-11766
▁demonstrate	-11767
▁1964	-11768
cor	-11769
▁na	-11770
borne	-11771
▁buses	-11772
uy	-11773
▁Norman	-11774
▁bowl	-11775
▁Left	-11776
▁spreading	-11777
▁Corp	-11778
munition	-11779
▁Indigenous	-11780
connect	-11781
▁Lauren	-11782
▁appreciate	-11783
such	-11784
ör	-11785
shot	-11786
▁Socialist	-11787
▁emphasis	-11788
▁rebell	-11789
▁hopefully	-11790
fish	-11791
▁hyd	-11792
▁Agreement	-11793
▁expects	-11794
▁Connecticut	-11795
ridge	-11796
▁Persian	-11797
▁Architect	-11798
▁cryptocur	-11799
gets	-11800
▁chains	-11801
▁siege	-11802
ressing	-11803
▁predecessor	-11804
▁lady	-11805
ordination	-11806
▁renewable	-11807
▁Days	-11808
▁cease	-11809
screen	-11810
▁chocolate	-11811
▁compound	-11812
▁Deep	-11813
▁Ring	-11814
▁Advis	-11815
▁Brothers	-11816
▁cattle	-11817
▁prince	-11818
▁rib	-11819
leans	-11820
ixel	-11821
▁scenario	-11822
nan	-11823
▁Bund	-11824
berry	-11825
tees	-11826
57	-11827
bery	-11828
cules	-11829
▁prol	-11830
osph	-11831
avery	-11832
▁Jin	-11833
selling	-11834
▁Made	-11835
▁bacteria	-11836
▁Jama	-11837
▁craft	-11838
▁Pete	-11839
▁abund	-11840
▁Player	-11841
▁investing	-11842
▁origins	-11843
96	-11844
▁grocer	-11845
▁handful	-11846
▁hook	-11847
▁18.	-11848
▁globally	-11849
▁southwest	-11850
▁Rat	-11851
owder	-11852
▁Colonel	-11853
▁crude	-11854
▁substance	-11855
▁Say	-11856
▁stroke	-11857
▁Kane	-11858
▁PlayStation	-11859
▁sear	-11860
▁trapped	-11861
▁Gor	-11862
43	-11863
▁Spirit	-11864
▁pride	-11865
apor	-11866
▁rocks	-11867
idd	-11868
▁*	-11869
▁emperor	-11870
▁soundtrack	-11871
▁ash	-11872
▁database	-11873
seud	-11874
▁SE	-11875
▁THE	-11876
▁removing	-11877
▁distinguished	-11878
▁underway	-11879
▁discussing	-11880
▁transformed	-11881
iatric	-11882
▁176	-11883
▁Brigade	-11884
Pro	-11885
▁Jake	-11886
▁Gabriel	-11887
iph	-11888
▁Gonz	-11889
▁aviation	-11890
▁identical	-11891
ttps	-11892
▁Tax	-11893
▁penalties	-11894
manuel	-11895
▁Gran	-11896
▁1991,	-11897
....	-11898
uki	-11899
vas	-11900
▁radiation	-11901
▁Harrison	-11902
econom	-11903
▁crimin	-11904
▁Mind	-11905
igrated	-11906
iors	-11907
▁Kem	-11908
▁Lud	-11909
▁57	-11910
▁accum	-11911
missions	-11912
fly	-11913
▁provincial	-11914
yler	-11915
▁Industrial	-11916
shore	-11917
▁Shel	-11918
▁edited	-11919
41	-11920
▁Mend	-11921
▁Read	-11922
oop	-11923
▁coins	-11924
▁manufacturer	-11925
▁investigated	-11926
▁worksh	-11927
jud	-11928
▁Kardashian	-11929
hill	-11930
▁march	-11931
▁72	-11932
▁knocked	-11933
▁refugee	-11934
▁20%	-11935
▁hanging	-11936
▁Eight	-11937
▁Model	-11938
▁withdrew	-11939
▁executives	-11940
▁underlying	-11941
▁1000	-11942
plus	-11943
▁southeast	-11944
▁Gard	-11945
ellation	-11946
▁accl	-11947
▁shorter	-11948
▁bol	-11949
▁seeds	-11950
▁Qual	-11951
▁bub	-11952
▁locomot	-11953
▁Workers	-11954
▁Heard	-11955
▁Lane	-11956
▁Benj	-11957
▁opinions	-11958
.;	-11959
▁attractive	-11960
▁Ze	-11961
▁3,000	-11962
▁impression	-11963
▁Windsor	-11964
▁painful	-11965
▁drives	-11966
▁comedian	-11967
elihood	-11968
▁Rwanda	-11969
.).	-11970
▁locally	-11971
ilia	-11972
▁scared	-11973
▁inclusion	-11974
mail	-11975
▁championships	-11976
▁stored	-11977
ME	-11978
▁sequel	-11979
▁1997.	-11980
▁minim	-11981
ui	-11982
▁pleaded	-11983
▁Orleans	-11984
▁surprising	-11985
sch	-11986
hum	-11987
▁Powell	-11988
▁outlet	-11989
▁Monte	-11990
▁joins	-11991
▁(8	-11992
▁53	-11993
▁Montreal	-11994
▁deterior	-11995
UN	-11996
shaped	-11997
▁filing	-11998
raham	-11999
▁unt	-12000
bast	-12001
^{2	-12002
▁expenses	-12003
▁barg	-12004
▁Mans	-12005
▁Venezuela	-12006
▁Fleet	-12007
▁Race	-12008
▁catast	-12009
▁Honor	-12010
count	-12011
▁Eug	-12012
▁nic	-12013
acco	-12014
▁territorial	-12015
▁Franklin	-12016
▁minds	-12017
achelor	-12018
▁outlets	-12019
▁130	-12020
▁Elon	-12021
▁billions	-12022
▁gallery	-12023
▁trailer	-12024
▁elabor	-12025
▁Pradesh	-12026
▁bic	-12027
′′	-12028
▁85	-12029
▁destro	-12030
▁trophy	-12031
thal	-12032
▁cultures	-12033
iminary	-12034
▁58	-12035
▁Stra	-12036
ishers	-12037
▁packed	-12038
4).	-12039
▁Phoenix	-12040
▁delighted	-12041
▁minimal	-12042
oub	-12043
oppers	-12044
quest	-12045
▁bike	-12046
▁grows	-12047
▁argues	-12048
▁Magn	-12049
▁Brist	-12050
▁Originally	-12051
▁fract	-12052
ère	-12053
▁invested	-12054
▁Venice	-12055
▁erupt	-12056
▁aftermath	-12057
▁glad	-12058
▁Pruss	-12059
▁mathematics	-12060
▁Nep	-12061
▁harsh	-12062
rama	-12063
▁Nobel	-12064
gus	-12065
▁guitarist	-12066
▁heir	-12067
▁conviction	-12068
master	-12069
adition	-12070
▁Guide	-12071
▁Chand	-12072
kar	-12073
▁Product	-12074
▁2023.	-12075
▁rapper	-12076
▁holes	-12077
▁knife	-12078
istle	-12079
gi	-12080
▁Wag	-12081
rez	-12082
▁remainder	-12083
▁unanim	-12084
▁interaction	-12085
▁tragic	-12086
▁Stur	-12087
▁bedroom	-12088
aws	-12089
▁hiding	-12090
▁openly	-12091
▁violations	-12092
▁alien	-12093
▁load	-12094
▁experiments	-12095
athon	-12096
▁Potter	-12097
▁evol	-12098
▁deadline	-12099
▁accordance	-12100
▁revel	-12101
▁outcomes	-12102
▁Money	-12103
▁differently	-12104
reshold	-12105
▁experimental	-12106
▁define	-12107
▁tel	-12108
▁Wel	-12109
▁belonged	-12110
▁Valent	-12111
▁wildlife	-12112
▁ammunition	-12113
ulus	-12114
opard	-12115
enny	-12116
▁17.	-12117
▁speculation	-12118
▁submit	-12119
terior	-12120
▁Punjab	-12121
▁Leicester	-12122
uda	-12123
▁Hig	-12124
▁interim	-12125
SI	-12126
▁Does	-12127
vation	-12128
▁peaked	-12129
▁Pittsburgh	-12130
▁evident	-12131
▁tension	-12132
amo	-12133
▁McDonald	-12134
inf	-12135
▁searching	-12136
▁fib	-12137
▁partial	-12138
hal	-12139
pot	-12140
▁Len	-12141
▁smile	-12142
▁Luk	-12143
▁sang	-12144
▁Michelle	-12145
isa	-12146
zi	-12147
▁mirror	-12148
▁epid	-12149
▁Bloom	-12150
▁Brent	-12151
▁rapporteur	-12152
▁scream	-12153
mn	-12154
▁leaf	-12155
▁doubled	-12156
▁HIV	-12157
▁Nat	-12158
Why	-12159
▁Nathan	-12160
▁empower	-12161
▁Emily	-12162
▁provider	-12163
core	-12164
98	-12165
eah	-12166
▁warming	-12167
▁interrupt	-12168
▁mystery	-12169
▁prosecution	-12170
▁Ton	-12171
founder	-12172
him	-12173
▁affecting	-12174
▁Kurd	-12175
DI	-12176
▁infantry	-12177
▁Buckingham	-12178
▁Koh	-12179
▁legitimate	-12180
▁Meta	-12181
▁15-	-12182
▁harassment	-12183
▁Malt	-12184
▁Route	-12185
,""	-12186
▁£3	-12187
▁(17	-12188
▁propaganda	-12189
▁76	-12190
▁resolved	-12191
▁Using	-12192
AA	-12193
▁revol	-12194
▁Edwards	-12195
▁interpretation	-12196
orig	-12197
▁files	-12198
▁cyber	-12199
▁helicopter	-12200
sur	-12201
▁Champion	-12202
▁Relations	-12203
oline	-12204
iblings	-12205
assion	-12206
▁synthes	-12207
▁sovereignty	-12208
▁diesel	-12209
▁Kash	-12210
▁Armed	-12211
▁encl	-12212
▁Fem	-12213
▁dropping	-12214
friendly	-12215
otion	-12216
▁accommodation	-12217
ean	-12218
▁closure	-12219
▁similarly	-12220
▁Tech	-12221
Go	-12222
▁Soft	-12223
▁belonging	-12224
▁elevated	-12225
▁judgment	-12226
graph	-12227
▁Dragon	-12228
▁thereby	-12229
▁profound	-12230
▁escort	-12231
▁Bear	-12232
imm	-12233
▁recordings	-12234
▁prel	-12235
▁Upper	-12236
▁Robin	-12237
▁belt	-12238
▁Rodrig	-12239
▁faculty	-12240
▁Hem	-12241
▁Vas	-12242
▁hence	-12243
▁Pil	-12244
olition	-12245
▁gardens	-12246
▁1990,	-12247
section	-12248
▁beloved	-12249
▁Wang	-12250
▁contributing	-12251
▁deficit	-12252
▁lasting	-12253
▁stabil	-12254
▁imper	-12255
encia	-12256
▁tear	-12257
▁Athens	-12258
▁1993,	-12259
▁mainland	-12260
▁tactics	-12261
▁portfolio	-12262
▁decrease	-12263
▁Bulgarian	-12264
▁tar	-12265
amation	-12266
▁Resp	-12267
▁Bald	-12268
▁Tibet	-12269
▁Prosec	-12270
▁Edition	-12271
▁polar	-12272
▁Lear	-12273
Well	-12274
▁apps	-12275
▁Warsaw	-12276
▁incumb	-12277
▁Meth	-12278
▁strip	-12279
anga	-12280
▁Lower	-12281
▁crops	-12282
chair	-12283
▁manifest	-12284
▁swift	-12285
▁Anti	-12286
eting	-12287
izations	-12288
▁sexually	-12289
▁Beh	-12290
▁Based	-12291
▁delegation	-12292
▁senator	-12293
▁enthusi	-12294
▁orchestra	-12295
oj	-12296
▁urge	-12297
▁neighboring	-12298
▁Lav	-12299
▁conced	-12300
urrection	-12301
▁Rap	-12302
97	-12303
ishe	-12304
ampa	-12305
▁smartphone	-12306
▁Limited	-12307
▁achieving	-12308
▁quarterback	-12309
▁Independence	-12310
▁tissue	-12311
▁namely	-12312
▁Intelligence	-12313
-18	-12314
ourg	-12315
▁Perry	-12316
ected	-12317
?'	-12318
▁Benjamin	-12319
▁mothers	-12320
▁lon	-12321
▁snap	-12322
▁transgender	-12323
ingers	-12324
▁cub	-12325
▁soaring	-12326
▁lap	-12327
▁gotten	-12328
▁impose	-12329
▁Reform	-12330
▁Soccer	-12331
▁mounted	-12332
leading	-12333
erts	-12334
than	-12335
▁CB	-12336
archy	-12337
▁bears	-12338
▁launching	-12339
▁amateur	-12340
▁Lisbon	-12341
▁notion	-12342
aceut	-12343
▁Jubilee	-12344
sub	-12345
ushes	-12346
antin	-12347
▁dispos	-12348
▁businessman	-12349
Europe	-12350
▁Quebec	-12351
▁Theater	-12352
▁athlete	-12353
▁lip	-12354
ighting	-12355
▁Tommy	-12356
▁Baltimore	-12357
▁bullet	-12358
▁Luther	-12359
ints	-12360
▁runner	-12361
▁Guinea	-12362
▁unfair	-12363
ags	-12364
RT	-12365
▁Forum	-12366
▁arbit	-12367
▁horizon	-12368
▁rational	-12369
▁nurse	-12370
▁completing	-12371
▁weird	-12372
▁Greater	-12373
▁Mes	-12374
offic	-12375
mathb	-12376
▁references	-12377
▁Neg	-12378
▁settings	-12379
▁unders	-12380
▁tap	-12381
party	-12382
tz	-12383
▁tribe	-12384
▁manufactured	-12385
iology	-12386
obs	-12387
went	-12388
omach	-12389
▁characterized	-12390
▁Frances	-12391
▁neighbouring	-12392
▁Eddie	-12393
▁donations	-12394
isons	-12395
▁Construction	-12396
▁hardware	-12397
▁Phillips	-12398
▁rebels	-12399
erk	-12400
four	-12401
▁Stuart	-12402
onda	-12403
▁Helen	-12404
▁Madam	-12405
backed	-12406
▁Come	-12407
▁habitat	-12408
▁playoff	-12409
▁monastery	-12410
▁frozen	-12411
▁Barbara	-12412
asi	-12413
▁Students	-12414
tail	-12415
▁accompany	-12416
▁triggered	-12417
▁rebuilt	-12418
▁detention	-12419
▁Pictures	-12420
▁fuels	-12421
aver	-12422
,000,	-12423
▁Cultural	-12424
▁poster	-12425
].	-12426
bank	-12427
▁2024	-12428
▁•	-12429
card	-12430
▁robot	-12431
icting	-12432
ervatory	-12433
▁Statistics	-12434
▁EV	-12435
▁fut	-12436
▁Lloyd	-12437
▁mud	-12438
▁Gem	-12439
press	-12440
▁Campaign	-12441
▁unveiled	-12442
▁Christianity	-12443
▁Against	-12444
▁presentation	-12445
▁supplement	-12446
etheless	-12447
▁Mall	-12448
▁greet	-12449
▁surn	-12450
▁Esc	-12451
▁loose	-12452
▁Kan	-12453
▁Historical	-12454
uum	-12455
cht	-12456
▁Fitz	-12457
▁Bit	-12458
▁suspic	-12459
▁bell	-12460
▁Bristol	-12461
cos	-12462
▁hybrid	-12463
etch	-12464
▁accusations	-12465
▁SC	-12466
▁intellig	-12467
▁SA	-12468
▁globe	-12469
▁icon	-12470
▁Mercedes	-12471
▁Return	-12472
▁initiated	-12473
lash	-12474
Am	-12475
▁Fant	-12476
▁Sah	-12477
▁Mak	-12478
▁Android	-12479
▁rhet	-12480
▁affects	-12481
▁lapt	-12482
▁violation	-12483
▁threshold	-12484
▁Bav	-12485
iox	-12486
emit	-12487
▁respected	-12488
▁voter	-12489
Uk	-12490
▁anticipated	-12491
}}}	-12492
▁declaration	-12493
▁1996.	-12494
usting	-12495
▁angle	-12496
▁farms	-12497
▁zones	-12498
▁conversion	-12499
/2	-12500
emble	-12501
▁reconc	-12502
airo	-12503
▁Pul	-12504
ods	-12505
▁publications	-12506
uber	-12507
▁maps	-12508
▁defeating	-12509
▁Yemen	-12510
▁longtime	-12511
▁1962	-12512
Just	-12513
▁pledged	-12514
▁Fury	-12515
▁Wik	-12516
▁Initially	-12517
▁shifted	-12518
▁pronounced	-12519
▁transit	-12520
Or	-12521
▁Iv	-12522
▁responses	-12523
▁Plant	-12524
▁prosecutor	-12525
▁Beaut	-12526
▁tracking	-12527
▁comeb	-12528
ulum	-12529
▁Dog	-12530
▁Goth	-12531
▁commod	-12532
▁particles	-12533
only	-12534
▁gaming	-12535
▁Marin	-12536
eness	-12537
▁photographer	-12538
▁substitute	-12539
▁Mold	-12540
▁NSW	-12541
▁brick	-12542
▁cave	-12543
▁chancellor	-12544
▁classification	-12545
▁airlines	-12546
▁Hous	-12547
▁Aberde	-12548
▁Bot	-12549
▁Shar	-12550
▁pupils	-12551
AZ	-12552
omon	-12553
profile	-12554
▁Flore	-12555
▁mines	-12556
▁memoir	-12557
essa	-12558
▁Cricket	-12559
▁Herald	-12560
▁READ	-12561
▁reactions	-12562
▁instructions	-12563
▁switched	-12564
aceutical	-12565
▁societies	-12566
▁Ghana	-12567
▁Hawaii	-12568
▁venues	-12569
▁tournaments	-12570
▁spectrum	-12571
▁cake	-12572
▁consequence	-12573
▁streak	-12574
▁highlights	-12575
uj	-12576
▁connecting	-12577
▁Kiev	-12578
▁presenter	-12579
▁Kon	-12580
▁motivated	-12581
-201	-12582
▁settlements	-12583
necess	-12584
▁announcing	-12585
▁ET	-12586
▁Ahmed	-12587
▁dramatically	-12588
oup	-12589
▁Peru	-12590
▁Vic	-12591
▁Aviation	-12592
▁Dubai	-12593
▁array	-12594
▁harvest	-12595
▁dece	-12596
▁Fans	-12597
▁Rand	-12598
▁unfortunately	-12599
ocide	-12600
cles	-12601
mented	-12602
▁prost	-12603
▁revealing	-12604
▁Europa	-12605
uto	-12606
▁Players	-12607
▁teenage	-12608
▁mechanical	-12609
▁Cu	-12610
▁proteins	-12611
▁guaranteed	-12612
▁bip	-12613
▁Holland	-12614
▁fitted	-12615
▁shed	-12616
▁confusion	-12617
▁tub	-12618
▁whenever	-12619
mind	-12620
▁applies	-12621
▁excav	-12622
▁tables	-12623
icular	-12624
▁Border	-12625
▁fol	-12626
▁orient	-12627
▁Dise	-12628
▁AG	-12629
▁resumed	-12630
▁haz	-12631
▁ridic	-12632
▁Sic	-12633
▁radar	-12634
▁achievements	-12635
prus	-12636
▁Lithuania	-12637
▁pilots	-12638
▁HD	-12639
▁ampl	-12640
▁Joshua	-12641
▁1939	-12642
rities	-12643
▁placing	-12644
▁availability	-12645
about	-12646
▁ratings	-12647
▁automatic	-12648
▁belongs	-12649
▁dining	-12650
chin	-12651
▁mandatory	-12652
▁IMD	-12653
intendo	-12654
▁siblings	-12655
▁pointing	-12656
▁intensity	-12657
▁Everything	-12658
▁Alt	-12659
▁Wallace	-12660
▁Similarly	-12661
▁Boeing	-12662
▁jurisdiction	-12663
issa	-12664
▁soap	-12665
▁Number	-12666
▁shar	-12667
▁1948	-12668
▁fed	-12669
▁documented	-12670
▁Petersburg	-12671
▁advocates	-12672
▁outrage	-12673
▁Historic	-12674
▁spr	-12675
▁breach	-12676
▁Friends	-12677
▁poems	-12678
▁conducting	-12679
fund	-12680
▁Newsweek	-12681
▁Ess	-12682
▁convince	-12683
▁eldest	-12684
FOR	-12685
▁Pin	-12686
▁transactions	-12687
▁Travel	-12688
▁avoided	-12689
white	-12690
▁privilege	-12691
él	-12692
▁ol	-12693
▁fights	-12694
▁institutional	-12695
lem	-12696
▁verdict	-12697
▁innocent	-12698
Not	-12699
▁Allied	-12700
▁1944	-12701
▁prisoner	-12702
▁certified	-12703
etter	-12704
▁gig	-12705
▁Log	-12706
▁pocket	-12707
atin	-12708
sl	-12709
▁expense	-12710
Su	-12711
▁https	-12712
▁Gaz	-12713
▁Joint	-12714
▁choosing	-12715
▁barriers	-12716
ouch	-12717
▁Tan	-12718
▁diamond	-12719
▁tab	-12720
mart	-12721
▁acceptable	-12722
▁surely	-12723
ierra	-12724
▁feared	-12725
▁fantasy	-12726
Now	-12727
▁worship	-12728
▁imprisoned	-12729
▁Susan	-12730
▁precisely	-12731
▁Kosovo	-12732
lett	-12733
▁indoor	-12734
▁modest	-12735
▁config	-12736
▁nit	-12737
▁Iraqi	-12738
▁Rico	-12739
▁drunk	-12740
▁communicate	-12741
Mus	-12742
▁rab	-12743
▁considers	-12744
▁caution	-12745
ayan	-12746
▁parade	-12747
▁chemistry	-12748
▁moist	-12749
▁embark	-12750
erm	-12751
▁Princip	-12752
▁Infl	-12753
▁lun	-12754
▁eager	-12755
stad	-12756
▁Hum	-12757
oons	-12758
▁dubbed	-12759
▁Nas	-12760
word	-12761
igo	-12762
▁revenues	-12763
hop	-12764
▁projected	-12765
▁Napole	-12766
▁pulling	-12767
▁Less	-12768
abis	-12769
▁Bass	-12770
str	-12771
▁Doc	-12772
▁Brighton	-12773
West	-12774
▁Neb	-12775
▁lighting	-12776
bin	-12777
stock	-12778
▁slavery	-12779
▁175	-12780
▁boxing	-12781
▁Cyprus	-12782
▁prevention	-12783
nered	-12784
▁Language	-12785
▁recyc	-12786
▁explaining	-12787
▁detected	-12788
▁timing	-12789
▁suspects	-12790
▁schem	-12791
▁ok	-12792
▁talented	-12793
▁sanction	-12794
osexual	-12795
▁Hurricane	-12796
▁rainfall	-12797
agne	-12798
▁disabled	-12799
▁1963	-12800
▁Past	-12801
▁Jerry	-12802
▁merger	-12803
▁vic	-12804
▁workplace	-12805
uras	-12806
▁trucks	-12807
▁Must	-12808
▁Gay	-12809
▁Dim	-12810
▁stamp	-12811
▁contested	-12812
▁warnings	-12813
▁Donetsk	-12814
▁4:	-12815
▁24-	-12816
iper	-12817
mile	-12818
▁epic	-12819
▁Inside	-12820
▁chip	-12821
▁doubles	-12822
▁condu	-12823
▁tent	-12824
▁gaining	-12825
▁victories	-12826
enberg	-12827
▁beds	-12828
▁mixture	-12829
▁Everton	-12830
▁Majesty	-12831
▁Lev	-12832
▁gifts	-12833
▁revised	-12834
▁telephone	-12835
fa	-12836
▁4-	-12837
▁romance	-12838
▁echo	-12839
▁rescued	-12840
▁guards	-12841
▁fluid	-12842
▁Spot	-12843
▁corresponding	-12844
▁eleven	-12845
HA	-12846
▁dimin	-12847
▁140	-12848
rowth	-12849
▁convert	-12850
▁Fun	-12851
▁unacceptable	-12852
▁condemn	-12853
▁menu	-12854
'".	-12855
▁5-	-12856
▁publisher	-12857
▁trafficking	-12858
▁Mario	-12859
▁Ran	-12860
▁constituency	-12861
days	-12862
▁instrumental	-12863
▁Leo	-12864
income	-12865
▁admits	-12866
▁letting	-12867
▁sung	-12868
▁corrid	-12869
1-	-12870
loaded	-12871
▁cruel	-12872
▁logic	-12873
▁syndrome	-12874
▁Burg	-12875
▁MA	-12876
▁Hockey	-12877
▁1995.	-12878
▁mechanisms	-12879
▁urging	-12880
▁trillion	-12881
▁Din	-12882
ampton	-12883
▁stere	-12884
▁descent	-12885
▁comeback	-12886
▁distinction	-12887
▁assisted	-12888
PC	-12889
reated	-12890
▁fru	-12891
oro	-12892
hl	-12893
▁doses	-12894
▁pleasure	-12895
▁Tuc	-12896
▁beneath	-12897
▁risen	-12898
▁airports	-12899
▁slave	-12900
▁rush	-12901
ellar	-12902
▁pursuit	-12903
▁supporter	-12904
▁McL	-12905
▁permanently	-12906
▁Bengal	-12907
enos	-12908
▁engaging	-12909
▁Change	-12910
▁picking	-12911
▁Chang	-12912
▁Argentine	-12913
▁1994.	-12914
▁decorated	-12915
▁oral	-12916
▁physician	-12917
▁contrad	-12918
atile	-12919
▁Nintendo	-12920
▁steady	-12921
▁Nothing	-12922
div	-12923
▁cruise	-12924
▁Celebr	-12925
▁photography	-12926
▁Gandhi	-12927
▁cemetery	-12928
▁abilities	-12929
▁aqu	-12930
▁tale	-12931
▁handled	-12932
▁Pack	-12933
▁examination	-12934
▁sizes	-12935
▁AFP	-12936
▁engineers	-12937
pop	-12938
cyclop	-12939
arded	-12940
▁Mason	-12941
▁Kyr	-12942
▁Fro	-12943
▁breakthrough	-12944
▁Dame	-12945
voy	-12946
▁Cand	-12947
▁Bird	-12948
▁ghost	-12949
▁magnetic	-12950
▁adventure	-12951
▁ware	-12952
▁Wrest	-12953
role	-12954
▁Fran	-12955
▁Ministers	-12956
▁1989,	-12957
▁Crimea	-12958
▁pound	-12959
ensis	-12960
▁$6	-12961
▁Magic	-12962
cott	-12963
▁philos	-12964
▁meaningful	-12965
oping	-12966
▁impacted	-12967
sis	-12968
▁Teh	-12969
▁bathroom	-12970
▁licence	-12971
ailing	-12972
▁regards	-12973
EE	-12974
▁independently	-12975
▁62	-12976
▁gam	-12977
holder	-12978
▁diam	-12979
▁Presidency	-12980
▁developers	-12981
▁correspondent	-12982
▁forb	-12983
▁sauce	-12984
▁breakfast	-12985
addy	-12986
▁damaging	-12987
▁Portland	-12988
▁variable	-12989
abetes	-12990
teenth	-12991
enson	-12992
iaz	-12993
▁sends	-12994
▁fleeing	-12995
▁Compan	-12996
▁110	-12997
▁Studio	-12998
▁inherited	-12999
furt	-13000
▁porn	-13001
▁nucle	-13002
▁shocking	-13003
esy	-13004
Some	-13005
▁Pic	-13006
▁petrol	-13007
▁complained	-13008
▁Kath	-13009
▁medic	-13010
ivo	-13011
▁fundra	-13012
▁Rash	-13013
▁flexible	-13014
oday	-13015
zzle	-13016
ocaust	-13017
children	-13018
▁deny	-13019
nity	-13020
igma	-13021
▁59	-13022
▁outs	-13023
olia	-13024
▁Danny	-13025
▁noble	-13026
▁Creat	-13027
▁Scots	-13028
▁commitments	-13029
▁quad	-13030
▁dil	-13031
▁Imm	-13032
▁Archbishop	-13033
▁Drug	-13034
uly	-13035
cano	-13036
oning	-13037
ci	-13038
▁hearts	-13039
▁Khark	-13040
▁18-	-13041
▁1956	-13042
▁Cris	-13043
▁crowds	-13044
▁buck	-13045
▁Symph	-13046
rying	-13047
▁BM	-13048
▁Kel	-13049
▁Squadron	-13050
▁Palestine	-13051
";	-13052
▁Syn	-13053
▁locals	-13054
ré	-13055
▁embassy	-13056
▁fare	-13057
uded	-13058
▁referee	-13059
▁fever	-13060
▁panic	-13061
▁stopping	-13062
▁Pra	-13063
alin	-13064
▁rifle	-13065
▁unsuccessful	-13066
OW	-13067
▁recur	-13068
▁Collection	-13069
▁chapel	-13070
▁forgotten	-13071
▁facilitate	-13072
▁displays	-13073
▁Hamb	-13074
▁architectural	-13075
▁Side	-13076
▁org	-13077
isi	-13078
them	-13079
▁cant	-13080
oker	-13081
▁determination	-13082
ennial	-13083
▁weakness	-13084
▁95	-13085
▁Please	-13086
▁authentic	-13087
▁instruction	-13088
▁Agriculture	-13089
abe	-13090
▁Golf	-13091
▁NHL	-13092
▁expertise	-13093
President	-13094
▁SW	-13095
▁una	-13096
▁firef	-13097
▁reinforce	-13098
abwe	-13099
▁McM	-13100
UT	-13101
azines	-13102
tor	-13103
post	-13104
isers	-13105
▁Zimb	-13106
▁Katie	-13107
iership	-13108
▁pose	-13109
▁pairs	-13110
▁offense	-13111
▁Should	-13112
▁Antar	-13113
▁lieutenant	-13114
▁Easter	-13115
▁Feder	-13116
▁Mohammed	-13117
▁Hebrew	-13118
▁Holmes	-13119
▁Spider	-13120
▁Chan	-13121
▁buff	-13122
▁Congo	-13123
▁button	-13124
▁Roh	-13125
▁legislature	-13126
▁Cour	-13127
unciation	-13128
▁Kyle	-13129
▁enabled	-13130
▁nurses	-13131
▁Brooks	-13132
▁frustrated	-13133
alde	-13134
▁Steel	-13135
▁lingu	-13136
▁transported	-13137
▁obsc	-13138
dec	-13139
phew	-13140
▁Tak	-13141
▁Clarke	-13142
▁stomach	-13143
▁cope	-13144
▁layers	-13145
emia	-13146
ptic	-13147
hero	-13148
▁Peninsula	-13149
],	-13150
▁commanded	-13151
▁solely	-13152
▁Kumar	-13153
▁motorcy	-13154
▁lineup	-13155
▁Movie	-13156
orient	-13157
▁burst	-13158
▁originated	-13159
auer	-13160
▁discipline	-13161
▁leather	-13162
roat	-13163
▁Lucas	-13164
▁deck	-13165
▁Environmental	-13166
▁Florence	-13167
▁rolled	-13168
ylan	-13169
▁topped	-13170
▁tonnes	-13171
▁Kapoor	-13172
▁geomet	-13173
▁68	-13174
▁regiment	-13175
etta	-13176
▁Kirk	-13177
▁functional	-13178
▁emerge	-13179
▁sculpture	-13180
▁bump	-13181
▁(15	-13182
▁fo	-13183
cr	-13184
▁aboard	-13185
▁1941	-13186
▁Lions	-13187
▁£5	-13188
▁pictured	-13189
▁Almost	-13190
igue	-13191
▁nest	-13192
▁Gust	-13193
develop	-13194
dog	-13195
▁1958	-13196
▁subscrib	-13197
estab	-13198
▁Pand	-13199
▁separation	-13200
▁Baltic	-13201
▁Keir	-13202
sole	-13203
▁shareholders	-13204
▁erected	-13205
▁Wu	-13206
▁invented	-13207
-16	-13208
▁Schools	-13209
–18	-13210
▁Rena	-13211
▁bitter	-13212
amese	-13213
ollar	-13214
▁intercept	-13215
▁Census	-13216
▁default	-13217
▁Byzantine	-13218
▁strang	-13219
▁interviewed	-13220
▁Ancient	-13221
▁bay	-13222
▁Minor	-13223
▁finances	-13224
▁supplied	-13225
▁squee	-13226
▁Put	-13227
▁Beth	-13228
gio	-13229
appropri	-13230
isha	-13231
▁grants	-13232
▁1992.	-13233
hell	-13234
▁academy	-13235
▁Unit	-13236
lass	-13237
▁depicted	-13238
▁→	-13239
▁privately	-13240
▁breeding	-13241
anie	-13242
▁safegu	-13243
▁Rather	-13244
inery	-13245
inema	-13246
▁Acad	-13247
gs	-13248
▁halt	-13249
ocking	-13250
▁Messi	-13251
▁Moz	-13252
▁Grace	-13253
▁desp	-13254
▁laboratory	-13255
PRNew	-13256
▁clinic	-13257
human	-13258
–6	-13259
▁UA	-13260
▁Chron	-13261
disc	-13262
▁67	-13263
onso	-13264
ormal	-13265
▁Bach	-13266
qual	-13267
▁intimid	-13268
lia	-13269
▁Sloven	-13270
abling	-13271
▁teammates	-13272
▁Theod	-13273
▁bridges	-13274
▁Urban	-13275
controlled	-13276
▁bout	-13277
▁parad	-13278
▁registration	-13279
▁neighbors	-13280
/1	-13281
▁reviewed	-13282
▁depri	-13283
▁beings	-13284
▁wheat	-13285
▁Kherson	-13286
▁neighbours	-13287
regular	-13288
▁Hampshire	-13289
▁Batman	-13290
you	-13291
▁breed	-13292
▁Ster	-13293
▁midterm	-13294
▁embrace	-13295
▁Very	-13296
PRNewswire	-13297
▁Besides	-13298
▁peer	-13299
▁crying	-13300
▁Summit	-13301
▁Pere	-13302
▁nephew	-13303
▁fa	-13304
▁seal	-13305
▁Starmer	-13306
▁grief	-13307
▁dé	-13308
▁Bobby	-13309
▁Analysis	-13310
▁Annual	-13311
▁Vincent	-13312
▁Rus	-13313
▁Viol	-13314
▁scrutiny	-13315
▁Gener	-13316
▁refusing	-13317
▁Encyclop	-13318
▁canceled	-13319
ourable	-13320
▁Keep	-13321
hot	-13322
▁Victorian	-13323
▁disappointing	-13324
▁Citiz	-13325
▁Ko	-13326
UC	-13327
inians	-13328
mons	-13329
ouver	-13330
▁Beyond	-13331
▁Conservatives	-13332
▁Communications	-13333
▁mph	-13334
forward	-13335
▁vend	-13336
-15	-13337
▁negotiate	-13338
▁sid	-13339
▁Tru	-13340
▁Employ	-13341
▁Indies	-13342
▁1942	-13343
▁Half	-13344
▁Survey	-13345
▁MTV	-13346
wal	-13347
▁gamb	-13348
▁Soul	-13349
▁Notting	-13350
Jan	-13351
▁creator	-13352
▁implications	-13353
enge	-13354
▁Compet	-13355
▁volunteer	-13356
rone	-13357
▁polling	-13358
ussion	-13359
▁CDC	-13360
▁Abraham	-13361
▁Smart	-13362
▁agrees	-13363
▁technological	-13364
ahaw	-13365
▁criminals	-13366
ulture	-13367
▁Zimbabwe	-13368
meg	-13369
▁Fa	-13370
▁vegetables	-13371
▁1946	-13372
▁sne	-13373
▁fortune	-13374
pert	-13375
▁stir	-13376
pen	-13377
▁fails	-13378
▁convoy	-13379
vet	-13380
▁Tol	-13381
▁economist	-13382
▁77	-13383
En	-13384
▁contrary	-13385
Oct	-13386
▁libr	-13387
▁Baby	-13388
▁disappoint	-13389
▁rect	-13390
othy	-13391
▁succession	-13392
▁1961	-13393
hall	-13394
rien	-13395
loe	-13396
▁Cemetery	-13397
▁chips	-13398
▁makeup	-13399
▁feeding	-13400
storm	-13401
iances	-13402
▁distant	-13403
▁bloc	-13404
▁Shakes	-13405
upid	-13406
▁Redd	-13407
▁prayer	-13408
▁Grammy	-13409
▁schemes	-13410
speaking	-13411
▁opener	-13412
IDS	-13413
▁releasing	-13414
▁legendary	-13415
▁Racing	-13416
▁;	-13417
▁Occ	-13418
▁helpful	-13419
▁logo	-13420
ivic	-13421
▁ceased	-13422
▁Emergency	-13423
▁Lost	-13424
▁finale	-13425
▁Stockholm	-13426
atorial	-13427
five	-13428
▁lev	-13429
atra	-13430
▁pig	-13431
▁Keith	-13432
▁exceptional	-13433
▁celebrities	-13434
onduct	-13435
Hz	-13436
▁Assistant	-13437
▁dishes	-13438
CAA	-13439
▁1991.	-13440
▁segments	-13441
speed	-13442
Con	-13443
▁hypothes	-13444
▁63	-13445
type	-13446
peare	-13447
▁wickets	-13448
▁happiness	-13449
▁medication	-13450
▁40%	-13451
▁Xbox	-13452
▁applying	-13453
feld	-13454
▁uncon	-13455
▁draws	-13456
ju	-13457
▁Zone	-13458
▁shaped	-13459
▁bones	-13460
fortable	-13461
drop	-13462
orneys	-13463
▁ruler	-13464
▁genes	-13465
▁manages	-13466
▁Giov	-13467
▁distinctive	-13468
aton	-13469
▁blast	-13470
▁Woods	-13471
▁19.	-13472
▁extending	-13473
▁broadcaster	-13474
▁playoffs	-13475
ouncill	-13476
▁203	-13477
▁lengthy	-13478
▁1947	-13479
▁Pav	-13480
▁flags	-13481
▁1959	-13482
▁leaked	-13483
▁flank	-13484
▁McD	-13485
▁trio	-13486
▁encountered	-13487
ов	-13488
▁Broadcast	-13489
▁barrier	-13490
▁overd	-13491
▁Ful	-13492
cal	-13493
zig	-13494
▁Wayback	-13495
▁influences	-13496
unal	-13497
▁Coron	-13498
ön	-13499
iking	-13500
ustain	-13501
enhagen	-13502
▁nominee	-13503
▁tatto	-13504
▁wreck	-13505
▁leak	-13506
▁Sebast	-13507
▁counted	-13508
immer	-13509
▁Terry	-13510
▁Geneva	-13511
▁slaves	-13512
▁monarchy	-13513
▁cats	-13514
▁pale	-13515
viv	-13516
▁quarters	-13517
▁pole	-13518
▁Dest	-13519
▁Bened	-13520
▁Curt	-13521
▁Dow	-13522
▁Floyd	-13523
▁download	-13524
Ad	-13525
▁demolished	-13526
▁doct	-13527
▁Emb	-13528
icon	-13529
▁preliminary	-13530
▁divorced	-13531
ulent	-13532
▁floods	-13533
▁Link	-13534
▁Sor	-13535
omers	-13536
▁Balk	-13537
izza	-13538
itches	-13539
▁retailers	-13540
onde	-13541
Im	-13542
▁Lan	-13543
▁Larry	-13544
▁considerably	-13545
▁Tories	-13546
▁eliminate	-13547
ifier	-13548
▁chron	-13549
cur	-13550
rape	-13551
▁Index	-13552
▁IMDb	-13553
▁Heath	-13554
▁accomplish	-13555
▁magazines	-13556
▁floors	-13557
living	-13558
▁historians	-13559
prom	-13560
ede	-13561
▁endorsed	-13562
▁sustainability	-13563
vironments	-13564
▁therap	-13565
mediate	-13566
▁Eff	-13567
/0	-13568
▁Anim	-13569
▁hike	-13570
▁batteries	-13571
▁Yugoslavia	-13572
ologically	-13573
mare	-13574
▁thread	-13575
▁1957	-13576
▁Sene	-13577
▁Gate	-13578
▁boards	-13579
▁directions	-13580
▁refuse	-13581
wig	-13582
SU	-13583
▁20.	-13584
▁Rot	-13585
rifying	-13586
▁panels	-13587
▁frustration	-13588
▁Manuel	-13589
▁Croatian	-13590
▁pap	-13591
▁Training	-13592
▁sentences	-13593
▁bearing	-13594
▁Saints	-13595
▁enters	-13596
▁Zelenskyy	-13597
▁commissioner	-13598
▁overt	-13599
▁cotton	-13600
▁glac	-13601
▁Prag	-13602
▁horm	-13603
pine	-13604
▁persec	-13605
▁Pedro	-13606
beit	-13607
▁Word	-13608
▁housed	-13609
▁auto	-13610
▁Dy	-13611
▁copper	-13612
▁adm	-13613
▁abortions	-13614
▁unh	-13615
▁pupp	-13616
▁incumbent	-13617
▁rall	-13618
▁linear	-13619
▁Bour	-13620
▁FT	-13621
▁voiced	-13622
mith	-13623
▁Room	-13624
▁Julia	-13625
▁livest	-13626
▁Blair	-13627
▁exercises	-13628
▁20,000	-13629
ishops	-13630
▁masc	-13631
author	-13632
nders	-13633
▁customs	-13634
▁Shaw	-13635
▁festivals	-13636
▁SU	-13637
▁decisive	-13638
▁broadcasting	-13639
▁adequate	-13640
▁thereafter	-13641
▁ambulance	-13642
▁surname	-13643
▁Gav	-13644
▁transparent	-13645
▁Southeast	-13646
▁Sep	-13647
▁aest	-13648
▁Jessica	-13649
▁concentrated	-13650
err	-13651
▁Hob	-13652
▁Hundred	-13653
named	-13654
▁damages	-13655
▁extensively	-13656
instein	-13657
▁acknowledge	-13658
fr	-13659
▁passport	-13660
▁Holocaust	-13661
▁kills	-13662
▁matching	-13663
▁ho	-13664
eway	-13665
▁prospects	-13666
▁cig	-13667
▁Hudson	-13668
▁excessive	-13669
erving	-13670
▁unnecess	-13671
iko	-13672
▁Fergus	-13673
El	-13674
enburg	-13675
▁Ole	-13676
▁filling	-13677
itement	-13678
▁Hispan	-13679
▁plates	-13680
▁Stanford	-13681
rove	-13682
▁characteristic	-13683
▁errors	-13684
▁staged	-13685
▁Diamond	-13686
▁assert	-13687
▁careers	-13688
▁introducing	-13689
▁ads	-13690
▁yard	-13691
▁spare	-13692
▁Salt	-13693
▁settlers	-13694
uates	-13695
▁1993.	-13696
▁Kharkiv	-13697
▁hearings	-13698
-17	-13699
▁precise	-13700
▁Fat	-13701
▁Map	-13702
▁arena	-13703
ente	-13704
▁Spencer	-13705
▁ignore	-13706
▁revenge	-13707
▁answered	-13708
giving	-13709
DF	-13710
▁Luxemb	-13711
▁cabin	-13712
Ab	-13713
▁accommodate	-13714
powered	-13715
▁Shakespeare	-13716
agonist	-13717
▁Yam	-13718
▁1945,	-13719
Co	-13720
▁Harvey	-13721
▁smell	-13722
▁ber	-13723
▁competitors	-13724
zone	-13725
▁concepts	-13726
▁Dol	-13727
▁eleg	-13728
▁Yank	-13729
erals	-13730
▁Scar	-13731
▁grie	-13732
boards	-13733
▁insists	-13734
▁Officials	-13735
ancouver	-13736
▁comply	-13737
▁renowned	-13738
▁magnitude	-13739
▁resid	-13740
▁Cad	-13741
▁Kle	-13742
▁Thous	-13743
▁offerings	-13744
)}	-13745
etown	-13746
lif	-13747
rugu	-13748
▁plug	-13749
ML	-13750
▁Marx	-13751
▁Martine	-13752
▁Rivers	-13753
rogen	-13754
▁Europeans	-13755
▁hem	-13756
▁employer	-13757
▁nominations	-13758
▁subsidiary	-13759
dep	-13760
▁Inv	-13761
▁Spurs	-13762
▁enhanced	-13763
omo	-13764
▁ballots	-13765
HP	-13766
▁administered	-13767
iago	-13768
▁Jar	-13769
▁orchest	-13770
▁tremend	-13771
▁1955	-13772
▁firmly	-13773
▁Total	-13774
▁nowhere	-13775
▁instant	-13776
▁consultant	-13777
best	-13778
▁Denver	-13779
▁electro	-13780
▁productivity	-13781
icked	-13782
▁drafted	-13783
▁PR	-13784
▁Julian	-13785
quer	-13786
▁Sturgeon	-13787
▁surpass	-13788
▁rever	-13789
▁poorly	-13790
graduate	-13791
▁Tamil	-13792
illes	-13793
▁resume	-13794
▁Cambod	-13795
▁bure	-13796
▁headlines	-13797
angered	-13798
▁Gy	-13799
▁toured	-13800
▁Nicola	-13801
▁Private	-13802
▁listing	-13803
second	-13804
▁Todd	-13805
▁bunch	-13806
▁bulk	-13807
▁strongest	-13808
amic	-13809
unct	-13810
▁tours	-13811
▁eleph	-13812
▁Mann	-13813
larg	-13814
uds	-13815
plant	-13816
▁shelling	-13817
economic	-13818
▁Olivia	-13819
irk	-13820
▁wash	-13821
haul	-13822
▁expend	-13823
▁displaced	-13824
base	-13825
▁Admiral	-13826
▁Aberdeen	-13827
▁spray	-13828
▁tang	-13829
▁Jazz	-13830
isdom	-13831
▁1990.	-13832
▁quantum	-13833
▁overl	-13834
▁Tyler	-13835
▁asc	-13836
▁installation	-13837
▁culmin	-13838
▁hiring	-13839
▁$20	-13840
▁entities	-13841
▁spa	-13842
▁neighbourhood	-13843
▁subt	-13844
▁posting	-13845
▁travels	-13846
▁Ferdin	-13847
▁Tourn	-13848
▁smoking	-13849
inating	-13850
▁colleges	-13851
▁thir	-13852
▁Mahar	-13853
▁environments	-13854
▁classroom	-13855
▁16-	-13856
▁Silva	-13857
▁promin	-13858
DE	-13859
▁strengthening	-13860
▁drops	-13861
▁Nine	-13862
▁lesson	-13863
▁Sultan	-13864
▁Resident	-13865
owners	-13866
▁Study	-13867
▁honey	-13868
▁touched	-13869
▁testified	-13870
cot	-13871
▁gut	-13872
handed	-13873
▁Buddhist	-13874
ahl	-13875
▁vibr	-13876
▁marking	-13877
aho	-13878
▁Apoll	-13879
▁sheep	-13880
▁Find	-13881
▁pursued	-13882
OK	-13883
▁accounting	-13884
▁(195	-13885
▁distract	-13886
▁True	-13887
▁Cob	-13888
language	-13889
inging	-13890
ixed	-13891
▁approaching	-13892
▁bilateral	-13893
▁Karen	-13894
▁dressing	-13895
▁vertical	-13896
▁vowed	-13897
▁HMS	-13898
▁elementary	-13899
▁valued	-13900
▁touring	-13901
urred	-13902
▁harmful	-13903
las	-13904
▁Nadal	-13905
paid	-13906
first	-13907
▁Canal	-13908
▁investor	-13909
▁Reyn	-13910
▁compilation	-13911
aptist	-13912
riages	-13913
▁wounds	-13914
▁Copenhagen	-13915
▁drums	-13916
▁photograp	-13917
▁assured	-13918
▁Hugh	-13919
quality	-13920
arding	-13921
chief	-13922
▁hills	-13923
▁Vel	-13924
▁piv	-13925
▁stones	-13926
▁Brady	-13927
▁Heavy	-13928
▁jailed	-13929
▁Vancouver	-13930
▁bottles	-13931
▁Ara	-13932
▁declare	-13933
▁Tag	-13934
▁purchases	-13935
▁warfare	-13936
▁specialized	-13937
▁Eld	-13938
ieth	-13939
rox	-13940
▁sorts	-13941
▁96	-13942
▁Presidential	-13943
▁Lot	-13944
▁interactions	-13945
▁99	-13946
▁hunt	-13947
▁Protestant	-13948
olar	-13949
▁Sharma	-13950
▁Guj	-13951
▁hopeful	-13952
▁prestigious	-13953
▁hect	-13954
▁toug	-13955
itted	-13956
itated	-13957
▁raises	-13958
▁Linda	-13959
▁Dund	-13960
ambers	-13961
▁rhetoric	-13962
▁defic	-13963
▁massacre	-13964
▁rated	-13965
▁Maxwell	-13966
▁fertil	-13967
▁Classic	-13968
▁1943	-13969
▁Pink	-13970
▁100%	-13971
umble	-13972
▁Bennett	-13973
▁advances	-13974
▁aster	-13975
aid	-13976
▁publish	-13977
▁Mig	-13978
▁Raw	-13979
iya	-13980
▁bio	-13981
▁Exam	-13982
ancies	-13983
▁plea	-13984
▁Break	-13985
▁Hab	-13986
▁heroes	-13987
▁supportive	-13988
perform	-13989
▁Owen	-13990
Rep	-13991
unting	-13992
igate	-13993
▁nickname	-13994
▁researcher	-13995
▁submarine	-13996
▁obligations	-13997
▁Grey	-13998
▁pist	-13999
UK	-14000
▁hire	-14001
▁Belf	-14002
▁communist	-14003
▁1952	-14004
▁Dakota	-14005
▁accomplished	-14006
▁Ground	-14007
▁Nearly	-14008
▁USS	-14009
▁Cann	-14010
▁outlook	-14011
stanbul	-14012
▁equation	-14013
▁hunger	-14014
▁exploration	-14015
rencies	-14016
▁collecting	-14017
▁carpet	-14018
▁1949	-14019
▁Sierra	-14020
▁ambition	-14021
▁Could	-14022
deg	-14023
▁graduating	-14024
cat	-14025
▁Madison	-14026
John	-14027
▁algorithm	-14028
airy	-14029
▁Sue	-14030
▁controlling	-14031
▁mobility	-14032
▁preval	-14033
istence	-14034
▁flexibility	-14035
hin	-14036
ullah	-14037
FF	-14038
▁30%	-14039
▁Weather	-14040
avid	-14041
tech	-14042
▁Songs	-14043
▁torture	-14044
▁accessed	-14045
▁veterans	-14046
▁Anglo	-14047
▁exile	-14048
IG	-14049
▁midfield	-14050
▁gram	-14051
▁divide	-14052
▁é	-14053
▁punch	-14054
▁defenders	-14055
▁Patel	-14056
matic	-14057
▁Emirates	-14058
▁Thor	-14059
▁treating	-14060
▁warns	-14061
▁opted	-14062
▁intr	-14063
▁beef	-14064
▁sophistic	-14065
▁Kin	-14066
▁Symphony	-14067
rior	-14068
▁imported	-14069
▁commentary	-14070
▁hes	-14071
▁Kid	-14072
▁acceptance	-14073
▁reiter	-14074
▁ceiling	-14075
elong	-14076
ducted	-14077
eton	-14078
UR	-14079
▁Bomb	-14080
written	-14081
▁$2.	-14082
onial	-14083
▁tong	-14084
▁murders	-14085
▁horn	-14086
▁Cinc	-14087
▁pays	-14088
▁extends	-14089
▁imprisonment	-14090
▁2.5	-14091
▁cavalry	-14092
▁Hat	-14093
bye	-14094
▁vacuum	-14095
▁Mul	-14096
herent	-14097
▁charter	-14098
Fi	-14099
CH	-14100
▁perception	-14101
▁rebel	-14102
▁diameter	-14103
▁conclus	-14104
▁Medic	-14105
▁supermarket	-14106
▁billionaire	-14107
▁Production	-14108
PM	-14109
cap	-14110
▁USD	-14111
▁suggestion	-14112
▁priorit	-14113
▁contacts	-14114
▁compact	-14115
▁observation	-14116
▁backlash	-14117
▁Ral	-14118
mal	-14119
La	-14120
▁Urugu	-14121
abel	-14122
ripp	-14123
▁Bosnia	-14124
After	-14125
▁separat	-14126
neys	-14127
▁responding	-14128
Pr	-14129
▁Mol	-14130
has	-14131
building	-14132
▁Bris	-14133
uka	-14134
▁screening	-14135
▁Baseball	-14136
.-	-14137
three	-14138
▁Rou	-14139
▁Tradition	-14140
▁vib	-14141
▁insight	-14142
good	-14143
▁websites	-14144
▁nonprofit	-14145
▁utter	-14146
▁indicating	-14147
67	-14148
▁Month	-14149
▁spectacular	-14150
▁breathing	-14151
▁50-	-14152
▁Fourth	-14153
▁devastated	-14154
▁Tang	-14155
sche	-14156
dess	-14157
▁importantly	-14158
leted	-14159
amas	-14160
▁scrat	-14161
▁binding	-14162
▁crews	-14163
▁withdrawn	-14164
▁pad	-14165
usc	-14166
▁Overall	-14167
isch	-14168
▁unrest	-14169
▁compassion	-14170
▁Vent	-14171
▁(1,	-14172
▁Davies	-14173
▁maintains	-14174
▁grat	-14175
▁waited	-14176
▁questioning	-14177
▁UFC	-14178
▁entity	-14179
CD	-14180
henko	-14181
▁Cauc	-14182
escope	-14183
anti	-14184
ewise	-14185
▁Battalion	-14186
▁Archive	-14187
▁compliance	-14188
▁mysterious	-14189
comp	-14190
▁Self	-14191
▁rebellion	-14192
▁hier	-14193
▁Stri	-14194
▁Greene	-14195
▁Els	-14196
▁Bailey	-14197
French	-14198
link	-14199
▁Tehran	-14200
▁drown	-14201
direct	-14202
▁deliberately	-14203
▁hack	-14204
▁Arctic	-14205
▁spacecraft	-14206
▁multip	-14207
▁Commerce	-14208
▁enrolled	-14209
ungle	-14210
▁fifteen	-14211
▁sharply	-14212
▁pseud	-14213
▁Table	-14214
▁Sullivan	-14215
▁Hughes	-14216
▁fet	-14217
▁destroying	-14218
▁infer	-14219
▁interface	-14220
▁municipalities	-14221
actor	-14222
▁Reich	-14223
▁circles	-14224
▁reply	-14225
▁Fine	-14226
▁notorious	-14227
▁accepting	-14228
▁73	-14229
▁commemor	-14230
▁Volume	-14231
▁Pick	-14232
▁inevitable	-14233
omatic	-14234
itative	-14235
▁Apart	-14236
armed	-14237
▁None	-14238
▁Yang	-14239
▁betray	-14240
▁chase	-14241
girl	-14242
folk	-14243
▁Cardiff	-14244
▁Sophie	-14245
▁Economics	-14246
ulsion	-14247
▁realistic	-14248
▁circulation	-14249
▁acquire	-14250
▁drummer	-14251
–3	-14252
▁evacuated	-14253
exp	-14254
▁corps	-14255
▁Reed	-14256
▁freight	-14257
▁sentiment	-14258
▁fool	-14259
inge	-14260
▁Steph	-14261
▁greenhouse	-14262
▁slot	-14263
▁corrupt	-14264
acey	-14265
▁hostile	-14266
roleum	-14267
▁toilet	-14268
▁Platinum	-14269
ych	-14270
ilitation	-14271
▁opposing	-14272
iji	-14273
▁Charter	-14274
ipher	-14275
aland	-14276
▁Arkansas	-14277
▁varied	-14278
▁departed	-14279
▁sponsored	-14280
▁liver	-14281
▁69	-14282
this	-14283
▁ninet	-14284
▁24.	-14285
▁exploring	-14286
umi	-14287
▁74	-14288
▁mere	-14289
▁1936	-14290
▁cheer	-14291
▁drones	-14292
home	-14293
▁21.	-14294
ocate	-14295
▁bless	-14296
▁Arnold	-14297
▁predominantly	-14298
▁Leaders	-14299
▁pursuing	-14300
▁ank	-14301
▁Publishing	-14302
▁attraction	-14303
▁demonstration	-14304
▁FM	-14305
▁Lucy	-14306
▁whis	-14307
helm	-14308
▁Emmanuel	-14309
▁Rice	-14310
▁addresses	-14311
▁Check	-14312
▁forum	-14313
xton	-14314
▁disputes	-14315
▁chrom	-14316
▁Manager	-14317
▁cathedral	-14318
▁observations	-14319
▁constrain	-14320
▁1988,	-14321
▁vacation	-14322
▁marginal	-14323
haw	-14324
▁uncomfortable	-14325
engu	-14326
▁diabetes	-14327
▁authorized	-14328
▁Crystal	-14329
▁chemicals	-14330
▁Sex	-14331
▁refuses	-14332
IR	-14333
▁Barn	-14334
▁generous	-14335
▁honorary	-14336
▁slammed	-14337
▁hammer	-14338
▁jacket	-14339
▁fifty	-14340
rust	-14341
▁explosive	-14342
▁revolutionary	-14343
▁Rhodes	-14344
▁Abbott	-14345
▁Renaissance	-14346
▁Ny	-14347
▁125	-14348
▁craf	-14349
▁AB	-14350
-19.	-14351
▁checked	-14352
▁Nottingham	-14353
rand	-14354
▁stays	-14355
▁roster	-14356
Black	-14357
▁deserves	-14358
▁Jur	-14359
▁examined	-14360
imensional	-14361
▁Altern	-14362
▁Ruth	-14363
▁curve	-14364
gging	-14365
oken	-14366
▁Shin	-14367
▁mansion	-14368
▁Berg	-14369
president	-14370
▁Ferdinand	-14371
▁insec	-14372
▁intensive	-14373
ailable	-14374
▁Cox	-14375
▁implementing	-14376
▁decreased	-14377
▁toss	-14378
▁relocated	-14379
▁psychology	-14380
▁Faculty	-14381
▁Frankfurt	-14382
▁Working	-14383
date	-14384
Japan	-14385
▁suburb	-14386
▁acute	-14387
▁indirect	-14388
▁Core	-14389
astics	-14390
▁Eurovision	-14391
▁identification	-14392
▁appeals	-14393
▁protective	-14394
▁feedback	-14395
▁NCAA	-14396
▁sued	-14397
▁utility	-14398
▁Bros	-14399
▁suspicion	-14400
▁licensed	-14401
▁78	-14402
▁prolong	-14403
▁pending	-14404
▁maker	-14405
2-	-14406
▁Computer	-14407
▁deciding	-14408
▁powder	-14409
▁bureauc	-14410
ayed	-14411
▁coordination	-14412
▁Cornwall	-14413
July	-14414
▁Maine	-14415
▁loop	-14416
kind	-14417
▁Hein	-14418
▁presum	-14419
▁proc	-14420
▁Store	-14421
▁consultation	-14422
▁Giants	-14423
▁Investig	-14424
▁biod	-14425
whe	-14426
▁80%	-14427
▁Cuban	-14428
▁Slam	-14429
▁shooter	-14430
abil	-14431
oka	-14432
▁Fellow	-14433
▁Ple	-14434
▁underwent	-14435
length	-14436
▁Louise	-14437
▁tends	-14438
▁fence	-14439
▁gran	-14440
▁Banks	-14441
▁recalls	-14442
▁×	-14443
▁Thai	-14444
▁Wire	-14445
▁tune	-14446
▁aggreg	-14447
▁colonies	-14448
▁Jacques	-14449
▁Host	-14450
phabet	-14451
▁Dylan	-14452
▁1989.	-14453
bane	-14454
▁Erik	-14455
▁duration	-14456
▁wrapped	-14457
▁ultra	-14458
▁Criminal	-14459
▁instances	-14460
▁Carr	-14461
▁Yellow	-14462
▁Sug	-14463
▁freely	-14464
▁discontin	-14465
esar	-14466
▁Brid	-14467
▁admir	-14468
▁printing	-14469
▁tomb	-14470
compass	-14471
▁ideology	-14472
▁presenting	-14473
▁Prague	-14474
▁Chase	-14475
ultural	-14476
▁Cancer	-14477
WS	-14478
▁lockdowns	-14479
avia	-14480
ophob	-14481
▁breakdown	-14482
store	-14483
▁balanced	-14484
▁dissolved	-14485
▁Begin	-14486
ancers	-14487
dig	-14488
▁navy	-14489
▁1954	-14490
▁qualification	-14491
▁rebuild	-14492
▁monkeypox	-14493
▁cannabis	-14494
fold	-14495
▁coffin	-14496
▁Albania	-14497
nick	-14498
▁developer	-14499
68	-14500
▁Truth	-14501
vor	-14502
▁undergo	-14503
▁loving	-14504
Qu	-14505
▁graphic	-14506
▁capability	-14507
▁merchant	-14508
▁climbing	-14509
▁takeover	-14510
isheries	-14511
▁Clay	-14512
▁Telegraph	-14513
▁Basket	-14514
▁fert	-14515
▁accountable	-14516
▁Butler	-14517
GC	-14518
▁tob	-14519
▁apology	-14520
▁Richmond	-14521
▁rings	-14522
▁Ps	-14523
▁patch	-14524
▁Circuit	-14525
▁swept	-14526
umns	-14527
▁rook	-14528
▁Pod	-14529
rising	-14530
▁reson	-14531
▁reserved	-14532
nut	-14533
anic	-14534
TO	-14535
aha	-14536
▁Ferguson	-14537
▁immunity	-14538
▁vow	-14539
▁recipe	-14540
▁Luxembourg	-14541
eav	-14542
▁tube	-14543
▁prohibited	-14544
▁Gregory	-14545
▁blocking	-14546
▁dignity	-14547
▁fingers	-14548
▁dur	-14549
▁Andrews	-14550
▁enterprises	-14551
▁bits	-14552
▁1953	-14553
inda	-14554
▁factories	-14555
▁intelligent	-14556
elected	-14557
▁enterprise	-14558
▁Prevention	-14559
▁sacrifice	-14560
imo	-14561
aters	-14562
▁Palestinians	-14563
▁Tong	-14564
DR	-14565
ogl	-14566
▁Bath	-14567
▁1938	-14568
▁disband	-14569
European	-14570
▁bund	-14571
▁skull	-14572
covery	-14573
▁ferry	-14574
▁treas	-14575
pling	-14576
▁enabling	-14577
▁effectiveness	-14578
▁(190	-14579
English	-14580
▁nationalist	-14581
October	-14582
▁ambitions	-14583
▁speeds	-14584
▁believing	-14585
▁Lil	-14586
acerb	-14587
▁88	-14588
▁attorneys	-14589
▁Yu	-14590
▁biography	-14591
▁occurring	-14592
conf	-14593
proof	-14594
▁feud	-14595
mill	-14596
forest	-14597
aris	-14598
▁1986,	-14599
▁Martinez	-14600
▁diox	-14601
▁pedest	-14602
hn	-14603
emi	-14604
▁inequality	-14605
March	-14606
▁Pu	-14607
▁pond	-14608
▁Cincinn	-14609
▁Pence	-14610
▁financially	-14611
▁Chapter	-14612
▁desired	-14613
▁sword	-14614
▁appealed	-14615
▁journalism	-14616
▁ranges	-14617
▁admission	-14618
▁tactical	-14619
▁crises	-14620
▁Tat	-14621
▁Tampa	-14622
▁shower	-14623
▁loyalty	-14624
▁slip	-14625
▁Salvador	-14626
▁61	-14627
▁Clear	-14628
▁Stream	-14629
▁steal	-14630
CS	-14631
eu	-14632
heimer	-14633
▁Stop	-14634
▁Otto	-14635
▁recount	-14636
▁peers	-14637
▁terrorists	-14638
▁Element	-14639
▁Shir	-14640
▁viewing	-14641
▁Wonder	-14642
▁failures	-14643
▁wished	-14644
▁Drive	-14645
FORM	-14646
lla	-14647
99,	-14648
▁Ages	-14649
▁semif	-14650
▁guided	-14651
▁elevation	-14652
▁wors	-14653
▁assassination	-14654
song	-14655
▁Daw	-14656
▁fortress	-14657
ogo	-14658
▁cooling	-14659
▁storms	-14660
oko	-14661
amine	-14662
▁patent	-14663
▁evacuation	-14664
▁editions	-14665
▁entrepreneur	-14666
▁grace	-14667
▁accusing	-14668
While	-14669
Christ	-14670
▁suppliers	-14671
▁<	-14672
oding	-14673
advant	-14674
▁Ing	-14675
▁Bag	-14676
▁trusted	-14677
▁Coalition	-14678
▁separately	-14679
▁Britt	-14680
▁lens	-14681
▁upgrade	-14682
▁Wals	-14683
▁Istanbul	-14684
roe	-14685
▁Harper	-14686
▁associations	-14687
▁Lar	-14688
▁anonymous	-14689
▁glam	-14690
▁bully	-14691
▁Henri	-14692
▁insects	-14693
▁Stage	-14694
▁bankruptcy	-14695
▁rehe	-14696
▁molecules	-14697
▁Ottawa	-14698
▁reader	-14699
▁Authorities	-14700
▁Indonesian	-14701
▁revival	-14702
▁Transportation	-14703
▁Notes	-14704
▁Disease	-14705
arez	-14706
areth	-14707
▁Targ	-14708
▁WWE	-14709
▁Wer	-14710
▁Neither	-14711
900	-14712
elo	-14713
▁fierce	-14714
▁Wing	-14715
▁euros	-14716
▁tooth	-14717
igu	-14718
▁butt	-14719
▁Interior	-14720
▁sab	-14721
aires	-14722
thirds	-14723
uador	-14724
mathbf	-14725
▁Derby	-14726
▁Blink	-14727
▁varies	-14728
▁Legal	-14729
▁hurricane	-14730
kward	-14731
▁codes	-14732
▁Title	-14733
▁reflection	-14734
▁hometown	-14735
▁Giovanni	-14736
▁certificate	-14737
alg	-14738
▁subscription	-14739
▁oversee	-14740
aying	-14741
▁Philosoph	-14742
▁calculated	-14743
▁Pont	-14744
▁Use	-14745
▁securing	-14746
▁OP	-14747
▁casting	-14748
▁pressing	-14749
▁symbols	-14750
▁deployment	-14751
▁Warriors	-14752
amer	-14753
▁collision	-14754
7).	-14755
lived	-14756
iciary	-14757
▁Amanda	-14758
▁kings	-14759
▁inaugural	-14760
group	-14761
story	-14762
▁booked	-14763
▁Aston	-14764
▁mineral	-14765
▁compounds	-14766
ün	-14767
▁stepping	-14768
?".	-14769
▁launches	-14770
▁unfold	-14771
▁brave	-14772
▁sacred	-14773
▁dys	-14774
▁Liam	-14775
)"	-14776
▁migrant	-14777
aran	-14778
▁awful	-14779
▁essay	-14780
appen	-14781
▁sanct	-14782
▁scholarship	-14783
▁orn	-14784
▁Bark	-14785
▁violin	-14786
ulates	-14787
▁inclusive	-14788
▁Swift	-14789
▁basement	-14790
▁bans	-14791
▁designation	-14792
▁demonstrations	-14793
▁orientation	-14794
▁Brew	-14795
▁consciousness	-14796
▁deriv	-14797
▁edges	-14798
▁Kashmir	-14799
▁$7	-14800
achi	-14801
▁dancer	-14802
▁Hamburg	-14803
▁exacerb	-14804
▁boom	-14805
▁productions	-14806
▁Maz	-14807
izarre	-14808
▁disputed	-14809
▁picks	-14810
vacc	-14811
▁deposits	-14812
atories	-14813
▁voluntary	-14814
▁landl	-14815
▁retiring	-14816
▁chore	-14817
▁Newton	-14818
anmar	-14819
▁variations	-14820
Col	-14821
▁lib	-14822
▁descendants	-14823
lando	-14824
▁Cincinnati	-14825
▁Hearts	-14826
▁FDA	-14827
▁arrests	-14828
grand	-14829
▁Franco	-14830
amy	-14831
▁variation	-14832
▁plun	-14833
▁penet	-14834
▁functioning	-14835
▁pm	-14836
▁Bog	-14837
▁exhibit	-14838
▁sciences	-14839
World	-14840
outheastern	-14841
▁Chad	-14842
▁Twenty	-14843
▁Critics	-14844
chain	-14845
uming	-14846
▁recruitment	-14847
▁chess	-14848
▁Fisher	-14849
▁Challenge	-14850
▁recommendation	-14851
▁Mey	-14852
▁Estonia	-14853
ocial	-14854
▁inflic	-14855
sign	-14856
▁annoy	-14857
▁Vick	-14858
▁Java	-14859
▁Picture	-14860
▁25-	-14861
▁institute	-14862
▁LIV	-14863
▁Lamb	-14864
▁complement	-14865
▁Speed	-14866
▁nursing	-14867
▁prototype	-14868
quet	-14869
▁analys	-14870
Aug	-14871
▁embed	-14872
▁flagship	-14873
▁XI	-14874
▁lover	-14875
▁Wes	-14876
▁cents	-14877
▁fisher	-14878
▁vine	-14879
▁addiction	-14880
▁corporations	-14881
▁1985,	-14882
orse	-14883
arios	-14884
▁vel	-14885
▁Myanmar	-14886
▁Mathemat	-14887
▁impe	-14888
▁Wagner	-14889
▁curric	-14890
official	-14891
isode	-14892
▁40-	-14893
▁Colin	-14894
▁Iss	-14895
umm	-14896
▁tobacco	-14897
▁Angela	-14898
▁certification	-14899
▁tempt	-14900
▁mature	-14901
▁reminder	-14902
atched	-14903
GR	-14904
▁wicket	-14905
▁performers	-14906
▁Kany	-14907
VI	-14908
▁ruins	-14909
▁Resc	-14910
▁grandson	-14911
▁molecular	-14912
▁Lords	-14913
▁altered	-14914
▁prosperity	-14915
ockets	-14916
▁tender	-14917
▁dispers	-14918
▁Rush	-14919
▁Luck	-14920
▁voy	-14921
▁lifting	-14922
velt	-14923
▁economists	-14924
▁GM	-14925
▁HBO	-14926
▁1918	-14927
▁sensor	-14928
▁q	-14929
elia	-14930
aired	-14931
▁Libya	-14932
▁avoiding	-14933
lies	-14934
69	-14935
▁altitude	-14936
▁toys	-14937
ERS	-14938
▁Craw	-14939
ayev	-14940
▁Officers	-14941
▁Slav	-14942
▁"[	-14943
▁Ori	-14944
▁Lem	-14945
acious	-14946
▁integral	-14947
▁pian	-14948
▁conductor	-14949
▁undertaken	-14950
▁stupid	-14951
iola	-14952
▁towers	-14953
▁foul	-14954
▁Budget	-14955
▁Better	-14956
som	-14957
▁oppose	-14958
▁indication	-14959
▁Henderson	-14960
▁maritime	-14961
▁precip	-14962
namese	-14963
▁Above	-14964
▁sheriff	-14965
▁nerve	-14966
▁1987,	-14967
June	-14968
▁Isaac	-14969
▁illegally	-14970
oco	-14971
▁Collect	-14972
auge	-14973
▁theft	-14974
▁approve	-14975
▁altogether	-14976
▁hind	-14977
izh	-14978
▁Hass	-14979
▁Hub	-14980
▁rhythm	-14981
OA	-14982
▁complexity	-14983
▁gi	-14984
▁quarant	-14985
adequ	-14986
▁heated	-14987
anthrop	-14988
member	-14989
▁wheels	-14990
▁Eb	-14991
aja	-14992
▁midnight	-14993
▁Heat	-14994
▁counting	-14995
ocols	-14996
▁Haz	-14997
▁grocery	-14998
arians	-14999
▁Mater	-15000
▁seas	-15001
▁unst	-15002
▁choir	-15003
▁timber	-15004
▁foundations	-15005
▁Math	-15006
▁accidentally	-15007
▁Friedrich	-15008
▁Brend	-15009
▁sacked	-15010
▁Comics	-15011
club	-15012
▁Bever	-15013
▁eventual	-15014
rio	-15015
▁Nuclear	-15016
▁Rogers	-15017
▁Mercury	-15018
▁Sak	-15019
▁Fish	-15020
atican	-15021
▁accountability	-15022
▁reservoir	-15023
Te	-15024
▁traum	-15025
▁Wells	-15026
▁Programme	-15027
▁Caroline	-15028
▁emails	-15029
▁cartoon	-15030
▁intimate	-15031
▁Ana	-15032
▁teammate	-15033
▁Tournament	-15034
53	-15035
▁Liberty	-15036
este	-15037
VP	-15038
istically	-15039
▁circular	-15040
heric	-15041
▁Essex	-15042
▁Aub	-15043
▁disability	-15044
uns	-15045
techn	-15046
▁Gaza	-15047
▁Seoul	-15048
▁extinct	-15049
▁Meh	-15050
▁maxim	-15051
▁Ecuador	-15052
[...]
